#version: 0.2
p o
po s
a pos
& apos
o u
e n
a i
&apos ;</w>
r e</w>
t h
a n
e s</w>
i n
q u
o n
e r</w>
e s
i s</w>
l e</w>
a r
&apos ;
d e</w>
a s</w>
e r
o n</w>
o u</w>
t o</w>
m e</w>
t i
n e</w>
ou s</w>
a v
r e
th e</w>
@ -
@- @</w>
e d</w>
y ou</w>
r i
es t</w>
c h
e n</w>
e l
in g</w>
e u
a t</w>
en t</w>
a l
o m</w>
t e</w>
J e</w>
qu e</w>
o r
t r
l i
o m
p as</w>
c e</w>
s e</w>
d i
T om</w>
p r
e m
s u
h e</w>
ai s</w>
l a</w>
n o
a u
&apos; t</w>
o i
a n</w>
p l
ai t</w>
i l
e t</w>
a s
u n</w>
e z</w>
v ous</w>
i n</w>
s t
a t
o f</w>
l &apos;</w>
s i
an t</w>
l es</w>
a i</w>
I l</w>
n &apos;</w>
h e
a g
i t</w>
e v
a m
i t
m o
é t
f o
e t
&apos; s</w>
p ar
t re</w>
a p
v e</w>
c on
u s
e a
l o
i l</w>
ou t</w>
av e</w>
u ne</w>
d &apos;</w>
on s</w>
an d</w>
a c
a b
ou r</w>
J &apos;</w>
po u
ou r
eu x</w>
th at</w>
v i
c o
t u</w>
c om
t o
h at</w>
a y</w>
k e</w>
qu o
ou l
H e</w>
en d
b e
Y ou</w>
w as</w>
u s</w>
h i
d é
r o
h ave</w>
i s
j e</w>
d o
an s</w>
a ti
t s</w>
l y</w>
T he</w>
v er
fo r</w>
c i
qu &apos;</w>
t es</w>
h o
a re</w>
g h
on t</w>
an g
no t</w>
h is</w>
t er</w>
t u
g o
he re</w>
f ai
pr o
l e
s e
l le</w>
d es</w>
pou r</w>
b e</w>
on e</w>
f r
d o</w>
su is</w>
u n
p e
c h</w>
e x
f i
y our</w>
no w</w>
th is</w>
a r</w>
ai n</w>
m ent</w>
&apos; m</w>
é e</w>
m y</w>
t ;</w>
quo t;</w>
gh t</w>
& quot;</w>
a y
S he</w>
è re</w>
s on</w>
th e
b i
al l</w>
W e</w>
em ent</w>
a d</w>
el le</w>
c an</w>
oul d</w>
d ans</w>
E lle</w>
s o
l u
a l</w>
d u</w>
c u
p en
a d
n e
I t</w>
oi r</w>
v o
N ous</w>
b o
it h</w>
d on</w>
m i
b u
c ou
Q u
i m
w ith</w>
C &apos;</w>
m es</w>
w e
n ous</w>
t er
r es
&apos; re</w>
w ant</w>
po r
pl us</w>
li ke</w>
M ar
p er
fai re</w>
th ing</w>
r é
al l
s t</w>
T u</w>
p i
th er</w>
n i
l l</w>
k now</w>
w or
a u</w>
t en
s &apos;</w>
eu r</w>
mo i</w>
è s</w>
m &apos;</w>
ai n
V ous</w>
ét ait</w>
th in
ch o
qu i</w>
ou v
e c</w>
p u
f or
ag e</w>
d e
f u
as s
s i</w>
m on
f ait</w>
r es</w>
e l</w>
d ev
av ec</w>
ti on</w>
L e</w>
ati on</w>
p s</w>
w h
h er</w>
ê tre</w>
hi m</w>
ap p
L a</w>
us t</w>
t ed</w>
t em
t é</w>
a ke</w>
an d
W hat</w>
W h
s es</w>
d ay</w>
s om
s h
on n
c i</w>
t ou
ar ri
ç a</w>
w hat</w>
r en
g u
s ont</w>
g o</w>
in e</w>
el l</w>
il l</w>
l d</w>
h as</w>
g i
es s
k ing</w>
ar d</w>
t out</w>
an ce</w>
o d</w>
j our
en t
g r
Mar y</w>
tem ps</w>
et te</w>
d n</w>
s er
ea u</w>
L es</w>
ver y</w>
b l
f e
ti me</w>
quo i</w>
l s</w>
thin k</w>
a te</w>
pr é
su r</w>
i r</w>
b le</w>
ai s
m u
o k</w>
p ri
il l
T he
c r
D o</w>
d er
The y</w>
&apos; ve</w>
m an
ev er</w>
o p
v eux</w>
T his</w>
j &apos;</w>
d u
h u
qu el
on ne</w>
m ar
g et</w>
bi en</w>
&apos; ll</w>
h ad</w>
lu i</w>
d er</w>
tr ès</w>
ou n
o r</w>
ab le</w>
tr av
m e
v en
i e</w>
s p
m on</w>
w ill</w>
tr o
en s</w>
ét é</w>
eu t</w>
en ts</w>
ab out</w>
w e</w>
o w</w>
C e</w>
m in
di s
a f
di d</w>
t é
s ais</w>
we re</w>
tu re</w>
oi t</w>
h eu
g ar
k s</w>
f in
ch e</w>
c l
end re</w>
fr om</w>
u p</w>
il le</w>
r ai
C om
di t</w>
bu t</w>
al ly</w>
a me</w>
s o</w>
k ed</w>
H ow</w>
o f
er s</w>
d s</w>
t y</w>
n u
li v
d em
as t</w>
s a</w>
l er</w>
j am
vo tre</w>
s or
oi n</w>
mo re</w>
T hat</w>
p ar</w>
g e</w>
di dn</w>
d r
the re</w>
m a
t al
re u
en d</w>
on g</w>
m ais</w>
D on</w>
trav ai
r y</w>
n o</w>
b y</w>
an ts</w>
be au
ay s</w>
a m</w>
T here</w>
t h</w>
s em
ê tes</w>
é ri
en ce</w>
c es</w>
u e</w>
m a</w>
c ette</w>
av oir</w>
v oir</w>
an y
N e</w>
r s</w>
go ing</w>
i ci</w>
h el
ev er
go od</w>
av ez</w>
M y</w>
s el
jam ais</w>
j ust</w>
am i</w>
en ti
w ay</w>
p h
cho se</w>
au x</w>
L &apos;</w>
to i</w>
s eu
pen se</w>
P our
t t
ne ed</w>
cou p</w>
p re
g s</w>
di f
co me</w>
é s</w>
w i
c el
I ls</w>
l l
ai re</w>
v oul
t ing</w>
h om
c or
c k</w>
t &apos;</w>
som e
pl a
es s</w>
e u</w>
é r
st u
f ri
&apos; d</w>
se e</w>
p eux</w>
il s</w>
f er
c &apos;</w>
be en</w>
av ait</w>
w ould</w>
v er</w>
sh ould</w>
r ais</w>
p ass
av ons</w>
ai d</w>
v rai
v oi
to o</w>
ho w</w>
c e
w n</w>
t on</w>
re d</w>
m an</w>
s ou
m er
c our
su r
n ever</w>
ea se</w>
d y</w>
au s
p e</w>
n er</w>
mu ch</w>
jour s</w>
j o
e ar
c t</w>
an y</w>
a ch
li s
A re</w>
re ad
di re</w>
c ri
Wh y</w>
th an</w>
Pour quoi</w>
vrai ment</w>
po n
com m
beau coup</w>
b r
t ell</w>
m or
hel p</w>
av ais</w>
ai me</w>
s ti
t ous</w>
i g
com me</w>
t om
ri ght</w>
ac k</w>
tro p</w>
tr ain</w>
t ri
f a
ch er</w>
pou r
e y</w>
c ar</w>
S ami</w>
ê me</w>
wh o</w>
re ally</w>
pr endre</w>
on ly</w>
i f</w>
wor k</w>
vi e</w>
the y</w>
si on</w>
sel f</w>
re e</w>
qu es</w>
qu es
par ti
g ent</w>
end s</w>
e p</w>
c ar
pe ti
ou ght</w>
o l</w>
con n
b es
ais s
ai r</w>
Ç a</w>
tr u
s he</w>
p eut</w>
b li
all er</w>
v ais</w>
quel que</w>
m é
in s</w>
i r
go t</w>
ea r</w>
o c
g h</w>
ci d
m ai
Com ment</w>
oun d</w>
ne w</w>
l à</w>
en f
mon de</w>
lo t</w>
dé j
co re</w>
wh en</w>
t el
t ant</w>
j ou
fo is</w>
E st</w>
por te</w>
n ouv
m ême</w>
l et
bes oin</w>
w here</w>
v a</w>
en core</w>
d eux</w>
ang er</w>
t a</w>
sp ea
s onne</w>
r ê
o ù</w>
m er</w>
f au
ever y
at t
v ez</w>
ti ons</w>
ri en</w>
lo o
h app
com p
é es</w>
w at
par ler</w>
or s</w>
j us
f e</w>
es e</w>
cel a</w>
c au
b re</w>
som mes</w>
oi re</w>
l ang
N o
pr es
l é
hom me</w>
el i
con tr
c ould</w>
b er</w>
an te</w>
I s</w>
D i
ét ais</w>
so l
read y</w>
re m
lo ve</w>
f am
r ait</w>
bo dy</w>
O n</w>
tou jours</w>
qu i
pr is</w>
m ust</w>
l ement</w>
eu rs</w>
ch i
tr ouv
st o
s a
p ère</w>
o ther</w>
c k
s en
pr ès</w>
t ake</w>
su p
m ain
k es</w>
ar gent</w>
ang e</w>
E n
u r
some thing</w>
r ou
pe u</w>
n ing</w>
l ast</w>
fu l</w>
et s</w>
ch ez</w>
arri v
M on</w>
î t</w>
w hi
su re</w>
so me</w>
h ab
d onn
c er
aus si</w>
ai ent</w>
I f</w>
ê te</w>
w s</w>
v u</w>
t e
r ai</w>
mai son</w>
es n</w>
cu l
P l
Mar ie</w>
op le</w>
l les</w>
in ter
g re
d es
an s
C an</w>
tt le</w>
tr ou
t w
ro w</w>
r a
m ake</w>
l on
f ac
do is</w>
do esn</w>
d re</w>
c ro
c re
b re
arri ve</w>
w ent</w>
tr es</w>
t ea
mon ey</w>
ho me</w>
g l
c ti
b eli
av ant</w>
ai ne</w>
C h
voi ture</w>
tr y</w>
r ent</w>
is h</w>
dif fi
b on</w>
travai l</w>
s oit</w>
s ho
s ed</w>
pl u
m at
l ong</w>
s cho
reu x</w>
g er</w>
e as
co l
au tre</w>
as se</w>
L et</w>
the m</w>
ten ant</w>
si ble</w>
ro om</w>
pe ople</w>
par t</w>
h ou
el y</w>
any thing</w>
Pl ease</w>
ô t</w>
vo y
to ld</w>
t a
sem ble</w>
s ay</w>
s aid</w>
po in
ni ght</w>
n ed</w>
k e
e f
ch il
cau se</w>
beli ev
b et
at s</w>
al i
œ u
v it
v es</w>
un i
tu r
spea k</w>
pro bl
li ttle</w>
ach et
Wh o</w>
S i</w>
sti ll</w>
s le
s in
oc cu
déj à</w>
dem and
tal k</w>
t ard</w>
scho ol</w>
r u
pen s
fri end</w>
fo re</w>
el les</w>
b ack</w>
an c
B o
us ed</w>
pro b
pr om
n ée</w>
jour d&apos;</w>
hu i</w>
fin d</w>
fi r
d re
com pl
c lo
W here</w>
E lles</w>
w ays</w>
vi si
st ar
m is
k no
fau t</w>
A s</w>
y ing</w>
we e
ven ir</w>
o ld</w>
lo ok</w>
gi r
d ét
c t
be fore</w>
b ro
Qu e</w>
Qu &apos;</w>
O ù</w>
ét u
w ell</w>
tw o</w>
th ought</w>
re gar
of f</w>
j our</w>
hou se</w>
bo ok</w>
at ed</w>
an ç
an t
al ways</w>
è me</w>
w on</w>
t en</w>
s ans</w>
ri ez</w>
r a</w>
po li
pla ît</w>
le ave</w>
in d</w>
il les</w>
ai mer
vi v
re ad</w>
qu and</w>
man y</w>
ma de</w>
m al</w>
le ar
heu res</w>
g lis
b us
b ou
T out</w>
N o</w>
v ed</w>
pu is</w>
par ents</w>
oul dn</w>
o ri
main tenant</w>
gr and</w>
fa ther</w>
f em
der ni
Di d</w>
un der
pla ce</w>
or y</w>
or row</w>
o b
no tre</w>
enf ants</w>
e at</w>
d or
c ame</w>
believ e</w>
ati ons</w>
app el
P er
F ren
é co
éco le</w>
w an
m al
lang u
l ate</w>
l a
h av
en tr
au jourd&apos;</w>
an de</w>
ag ain</w>
P ar
Fren ch</w>
F r
w as
s m
s ait</w>
liv re</w>
li ve</w>
in té
in to</w>
happ y</w>
c le</w>
at ten
ai de</w>
étu di
é n
z e</w>
wan ted</w>
to day</w>
si m
gi ve</w>
g en
fe el</w>
every thing</w>
d ed</w>
cou n
ç on</w>
w ri
t ôt</w>
por t
p ho
our s</w>
occu p
li fe</w>
l ais</w>
j u
it s</w>
is n</w>
il y</w>
fr anç
fir st</w>
dé e</w>
do es</w>
ar y</w>
ar rê
al one</w>
aimer ais</w>
Wh en</w>
Qu i</w>
A n
é cri
to ok</w>
seu l</w>
pass é</w>
p end
ou gh</w>
or s
l eur</w>
glis h</w>
g e
f t</w>
ess ay
ear s</w>
do g</w>
d in
ag er</w>
a way</w>
En glish</w>
E n</w>
é l
tou tes</w>
tou te</w>
s û
s é
ren contr
ques tion</w>
pre mi
ph one</w>
peti t</w>
no thing</w>
m ag
lo w
j e
i on</w>
h ap
end u</w>
c tion</w>
bet ter</w>
b onne</w>
ang lais</w>
al ready</w>
U n</w>
I n</w>
A vez</w>
mo st</w>
jo b</w>
i te</w>
h ard</w>
fu t</w>
franç ais</w>
en n
d ing</w>
d ent</w>
chi en</w>
c ap
b or
ass ez</w>
ag es</w>
a le</w>
H ave</w>
wi th
t ez</w>
su c
st and</w>
pro f
pos sible</w>
par l
mi eux</w>
it y</w>
hu r
bu y</w>
ac cid
a z
T h
y s</w>
the ir</w>
si st
por t</w>
p t</w>
o l
nu it</w>
mu si
jus te</w>
en ough</w>
d one</w>
ch é</w>
b ar
as s</w>
ai der</w>
a près</w>
Per sonne</w>
I n
u ti
tom orrow</w>
th ree</w>
s ent</w>
par le</w>
min d</w>
it é</w>
i se</w>
hi er</w>
h ed</w>
f l
dem ain</w>
d ou
ch ang
Qu el</w>
P u
ver y
té lé
tro is</w>
to r</w>
t ement</w>
seu le</w>
s tr
s ouv
s ci
s al
l aiss
i re</w>
i de
g ens</w>
dre n</w>
d û</w>
ch er
be cause</w>
au c
E very
C el
é g
wee k</w>
res s
ques tions</w>
qu elle</w>
pu l
p eur</w>
o ver</w>
o me</w>
m ati
l et</w>
it u
fem me</w>
f ille</w>
en ne</w>
em ber</w>
ch ar
ch am
c al</w>
b est</w>
as ked</w>
accid ent</w>
a de</w>
œu r</w>
with out</w>
w in
t re
st on</w>
s pe
pl an</w>
pen ed</w>
n ame</w>
mo ins</w>
min u
le ft</w>
l un
ig n
hi st
dr in
do wn</w>
do or</w>
cho ses</w>
b ri
N &apos;</w>
Bo ston</w>
v eut</w>
v e
se en</w>
s oir</w>
pré f
pos e</w>
pl ease</w>
o y
nouv eau</w>
m ère</w>
m om
m et
ide a</w>
ex ac
O u
Com bien</w>
y ears</w>
voul ais</w>
thin gs</w>
tea cher</w>
t ain</w>
sor ry</w>
sa w</w>
pu t</w>
pré ci
pou v
p le</w>
p ay
p ati
m et</w>
loo king</w>
i dée</w>
heu re</w>
g ro
f f
ex t</w>
er re</w>
en tre</w>
em s</w>
d oit</w>
com ment</w>
c us
a k
J ap
w er</w>
w al
vi ens</w>
t able</w>
sim pl
s avoir</w>
quel ques</w>
poin t</w>
per sonne</w>
pen sais</w>
parti r</w>
ou bli
of ten</w>
mar i
m is</w>
li re</w>
en c
do ing</w>
diffi cul
ch oi
c an
ar t</w>
C ette</w>
v éri
under stand</w>
ti mes</w>
s k
pro du
pri se</w>
pl eu
pl ay</w>
pl an
nu m
mom ent</w>
m y
m anger</w>
h and
g n
for m
e y
bus y</w>
bo o
at u
af ter</w>
a th
U ne</w>
Qu and</w>
Ê tes</w>
wh y</w>
wat er</w>
v ent</w>
sor ti
simpl ement</w>
s au
pu is
n om</w>
lo st</w>
l ors
gre at</w>
fr aid</w>
es ter
es p
demand é</w>
cour s</w>
con t
ch em
c et</w>
be ing</w>
b us</w>
au gh
ag ne</w>
a fraid</w>
M a</w>
H is</w>
Fr ance</w>
w r
w ants</w>
trou ve</w>
sem aine</w>
s ing</w>
re ment</w>
r ant</w>
por tant</w>
p ing</w>
n om
li c
l ar
j eu
heu reux</w>
eu se</w>
ester day</w>
e b
dé sol
dev rais</w>
con du
au tres</w>
au rais</w>
at o
as k</w>
ain s</w>
ai m
D o
D an</w>
y oun
wor ld</w>
whi ch</w>
vi e
ver s</w>
u se</w>
t eau</w>
su i
souv ent</w>
se cre
qu el</w>
pr ê
pl ay
pend ant</w>
n ext</w>
mo ther</w>
k new</w>
i ght</w>
hab itu
h ar
f on
ever y</w>
de puis</w>
d ri
co ld</w>
chil dren</w>
ch es</w>
ch e
ch ance</w>
c tor</w>
c in
c ess
c ent</w>
an k</w>
all é</w>
ad vi
achet er</w>
vo s</w>
v rai</w>
t el</w>
si de</w>
res t
rem ember</w>
probl ème</w>
pr in
pi è
peti te</w>
p u</w>
o se</w>
me ill
m en
im portant</w>
f ound</w>
f en
ex p
es te</w>
eas y</w>
d i</w>
cro is</w>
con se
b ad</w>
at ing</w>
arri ed</w>
a w
a do
Y our</w>
Qu elle</w>
é tr
ven u</w>
trouv é</w>
res pon
p ed</w>
p ays</w>
oi d</w>
m ay</w>
li t</w>
j et</w>
in vit
i d
f il
f ast</w>
ev en</w>
dif f
derni ère</w>
d res
b ed</w>
T o
Cel a</w>
ét aient</w>
wr ong</w>
wor d</w>
w ar
tru th</w>
tr ans
s tru
s ens</w>
s avais</w>
re z</w>
re tard</w>
quel qu&apos;</w>
pour quoi</w>
per s
o th
n is</w>
mor t</w>
me et</w>
m ine</w>
m il
m arried</w>
let tre</w>
in gs</w>
i le</w>
g et
dev ons</w>
d é</w>
cor re
cham bre</w>
ce ci</w>
c ted</w>
c all
am i
al is
ais se</w>
ai se</w>
a po
youn g</w>
y et</w>
y esterday</w>
vo l
vi r
v re</w>
t our
sorti r</w>
sm all</w>
sle ep</w>
ré pon
ri r</w>
qu er</w>
pou vez</w>
po pul
pi c
per du</w>
p ê
p ap
lo w</w>
let ter</w>
l ing</w>
kno ws</w>
k en</w>
he ar</w>
fam ille</w>
fac ile</w>
em pl
ear ly</w>
drin k</w>
do ctor</w>
d is</w>
con si
com ing</w>
ce p
be g
ar ound</w>
ap préci
ac cor
a que</w>
A ll</w>
è rent</w>
y ear</w>
w om
w ai
v ou
v ille</w>
u t</w>
tu res</w>
s y
pro ch
pho to</w>
p ay</w>
p ain</w>
ou t
m au
k ind</w>
jus qu&apos;</w>
it al</w>
inter es
h ors</w>
f ar</w>
f ais</w>
et tes</w>
er a</w>
eb a</w>
di st
ch ing</w>
c are</w>
c all</w>
boo ks</w>
atten tion</w>
ato eba</w>
ar ti
an other</w>
T atoeba</w>
M on
A p
y our
y eux</w>
w ea
véri té</w>
uti lis
tur ned</w>
trouv er</w>
tr ue</w>
ter s</w>
t our</w>
si tu
s w
s an
rai son</w>
r ap
prob ab
par ty</w>
op in
n on</w>
mé di
my self</w>
mor ning</w>
in dre</w>
i ve</w>
h un
h on
for t</w>
et ing</w>
es se</w>
dev en
comm enc
ci le</w>
b at
an im
A ll
é ni
w on
v ac
tur n</w>
to p</w>
ti red</w>
th é
th ese</w>
tal king</w>
t eur</w>
sto p</w>
ser a</w>
s é</w>
s mo
reu se</w>
por ter</w>
po us
pi an
par t
on ce</w>
o t</w>
n é</w>
liv es</w>
li e</w>
lear n</w>
in form
ill ed</w>
i li
i ez</w>
i er</w>
ho pe</w>
happ en</w>
hap pened</w>
h or
g g
fe w</w>
f av
ea ch</w>
d ents</w>
con tre</w>
ch an
c y
c am
b all</w>
ar s</w>
ar en</w>
any more</w>
ang er
W ould</w>
Pu is</w>
é ren
è res</w>
vi te</w>
vi ent</w>
v ue</w>
u i</w>
ter n
tel li
stu pi
st s</w>
st ay</w>
s ous</w>
re f
r ain</w>
pu bli
prob le
proble m</w>
pre t
poli ce</w>
of fi
ni ce</w>
m ain</w>
lo gi
ke ep</w>
inté ress
in telli
im ag
i ons</w>
hist oire</w>
hav ing</w>
h ô
fam ily</w>
fa ce</w>
ex pl
ex am
ent re
déj eu
diffi cile</w>
d ea
cu is
coun try</w>
ch au
c ouldn</w>
c al
c af
c a
arriv é</w>
ap prendre</w>
ac ti
G et</w>
Do es</w>
A u
A l
è te</w>
your self</w>
voy age</w>
viv re</w>
su ch</w>
situ ation</w>
seu lement</w>
s oi
s hi
s ame</w>
rest au
restau rant</w>
r é</w>
pour rait</w>
piè ce</w>
per son</w>
p au
opin ion</w>
ne e
n our
minu tes</w>
man i
m self</w>
m ing</w>
m ang
liv res</w>
li st
li kes</w>
lang ue</w>
l oin</w>
jour née</w>
jeu ne</w>
hi mself</w>
gar çon</w>
g ave</w>
g ag
fe el
fai tes</w>
donn é</w>
di re
de c
d ont</w>
d en
d ays</w>
cu ri
cr oire</w>
ch ev
ch at</w>
c lu
c en
al ement</w>
a di
S on</w>
R e
î ner</w>
ve ill
v in
v eu
travai lle</w>
th ose</w>
t ête</w>
sist er</w>
si r</w>
si g
s po
s pi
s av
res pe
r er</w>
ou ver
onn es</w>
o h
mé dec
mo t</w>
mi st
met tre</w>
me di
ma kes</w>
loo ks</w>
l é</w>
l ler</w>
is hed</w>
gir l</w>
ge ther</w>
fri ends</w>
fr oid</w>
f ête</w>
f ree</w>
f illes</w>
d anger
conn a
co û
ch ange</w>
c at</w>
beau ti
b les</w>
au tant</w>
at er</w>
an ces</w>
achet é</w>
W hi
0 0</w>
é ti
w ho
w ard</w>
w ait</w>
voul ez</w>
vi end
v ing</w>
tt en</w>
to gether</w>
t y
t ly</w>
t ai
sû r</w>
star ted</w>
se con
s er</w>
s enti
ri ons</w>
r om
qu é</w>
préf ér
pro pos
pr ends</w>
pian o</w>
pens é</w>
p eu
o i</w>
mi ght</w>
mati n</w>
m éri
lu tion</w>
l ess</w>
l ed</w>
is t</w>
in st
i de</w>
hav en</w>
h er
gu e</w>
gr and
get ting</w>
er ai</w>
enf ant</w>
dem ande</w>
com prendre</w>
chil d</w>
call ed</w>
c tu
bi g</w>
b ought</w>
at h</w>
arrê ter</w>
ant age</w>
ado re</w>
ac t</w>
a ce</w>
E x
A u</w>
écri t</w>
é cou
y ez</w>
wom an</w>
win do
whi le</w>
voul ait</w>
ver s
v en</w>
us tr
télé phone</w>
tu n
ti l</w>
stu dy</w>
so is</w>
si x</w>
si ons</w>
secre t</w>
se ems</w>
s il
s ent
ri ture</w>
ri s
premi er</w>
po is
pen d</w>
pe ine</w>
p er</w>
p asse</w>
p ain
nour riture</w>
n er
médec in</w>
mis s</w>
me eting</w>
m it</w>
lon g
long temps</w>
li ght</w>
it es</w>
i c
fr ère</w>
fo l
fin i</w>
f un</w>
f all
er reu
ent endu</w>
en se
e ful</w>
déjeu ner</w>
dres s</w>
dis pos
difficul t</w>
dif fer
dev rait</w>
con cer
can not</w>
c li
bro ther</w>
bi cy
beauti ful</w>
b it</w>
b eau</w>
b an
b al
auc une</w>
at ely</w>
app elle</w>
ap par
am ou
ai e</w>
accor d</w>
Par is</w>
Every one</w>
wri te</w>
wor king</w>
wat ch</w>
v as</w>
un til</w>
u es</w>
té s</w>
travai ller</w>
ten nis</w>
t on
t in
st ation</w>
sin ce</w>
si ck</w>
sen ten
se e
s s</w>
ri ch</w>
read ing</w>
qu it
pri e</w>
premi ère</w>
par ce</w>
p an
nouv elle</w>
ne i
mat ter</w>
m ou
l ev
inform ation</w>
i st
he ard</w>
habitu de</w>
h ours</w>
gr ande</w>
f it</w>
ex pe
essay er</w>
dét este</w>
désol é</w>
di x</w>
cti onn
cou ver
conn aiss
col ère</w>
cer t
c é
c er</w>
c ed</w>
c ation</w>
c as
bo y</w>
bl ess
b é</w>
b é
at es</w>
ad u
Th ese</w>
S u
P en
G ive</w>
G er
E s</w>
A r
é ch
was n</w>
wai ting</w>
vou dr
un der</w>
tr ying</w>
tr er</w>
ti que</w>
su jet</w>
st ory</w>
si ve</w>
sci enti
s œur</w>
s s
s how</w>
s et</w>
rou gh</w>
rou ge</w>
ri st
re au</w>
pri t</w>
pi e
offi ce</w>
ob je
o wn</w>
no s</w>
n é
n ess</w>
mo is</w>
meill eur</w>
m s</w>
lors qu&apos;</w>
li eu</w>
le av
langu age</w>
l ent</w>
k i
in t</w>
ill ez</w>
ill age</w>
ig no
i di
ho t</w>
he al
h ate</w>
fin ished</w>
fe e</w>
f ish</w>
f in</w>
f fee</w>
f er</w>
f el
f ati
ey es</w>
en semble</w>
en ces</w>
e w</w>
din ner</w>
di ed</w>
d îner</w>
d ro
d on
d et
cu t</w>
conn ais</w>
co ffee</w>
chev eux</w>
caf é</w>
c s</w>
bu reau</w>
bre a
bi r
au t</w>
ati on
ar i
apo n</w>
am ie</w>
ai res</w>
ac cep
V o
T ake</w>
S a</w>
Ou r</w>
No body</w>
M ay</w>
L aisse</w>
J apon</w>
E u
D ans</w>
B e
A ustr
. .</w>
è mes</w>
wi fe</w>
v él
uni ver
tri ed</w>
travai ll
tr ai
th ir
ter ri
ten tion</w>
t or
sup pose</w>
su m
su l
su b
so on</w>
sle e
ser vi
ser ait</w>
s ons</w>
s on
pret ty</w>
pres que</w>
plu tôt</w>
ou s
or din
occup é</w>
num ber</w>
n ager</w>
mi r</w>
liv ed</w>
laiss er</w>
l ait</w>
jou er</w>
jou e</w>
in er</w>
he art</w>
h as
h air</w>
gl ad</w>
fr u
for ts</w>
fo od</w>
fati gu
es père</w>
er ais</w>
el se</w>
d augh
con f
ci r
bor n</w>
bar r
b lo
b elle</w>
ay la</w>
av antage</w>
auc un</w>
ati ve</w>
any one</w>
an ese</w>
ad mi
Qu el
O ne</w>
O h</w>
L ayla</w>
Jap anese</w>
Jap an</w>
D e</w>
C ould</w>
C ome</w>
2 0
1 0</w>
. ..</w>
écri re</w>
y er</w>
wea ther</w>
we en</w>
w ish</w>
w er
v it</w>
us es</w>
thin king</w>
tel lement</w>
ta x
t ar
sur pri
so ci
sen se</w>
ren d</w>
regar der</w>
r ing</w>
r endre</w>
qu at
prê t</w>
pouv ons</w>
pour rais</w>
pou voir</w>
plu ie</w>
per i
parti e</w>
p un
ouv ez</w>
oubli é</w>
op en</w>
o t
no ir</w>
ne l</w>
mal ade</w>
m i</w>
ll ars</w>
liv ing</w>
kno wn</w>
k is
in es</w>
im médi
i tion</w>
i en</w>
hur t</w>
he ad</w>
h and</w>
gir ls</w>
fu ture</w>
fil m</w>
fi ve</w>
fel t</w>
f ils</w>
er min
end r
en nu
dé cid
do llars</w>
de hors</w>
de cid
d d
comp te</w>
comp any</w>
com bien</w>
chem in</w>
c œur</w>
bu r
at ch</w>
ass es</w>
appel er</w>
ans wer</w>
an g</w>
ain es</w>
advi ce</w>
a pon
U n
T V</w>
P eux</w>
J oh
H er</w>
C es</w>
wal k</w>
vél o</w>
visi t</w>
vi eux</w>
v in</w>
v illage</w>
u su
u p
u l
th rough</w>
ter min
ten ir</w>
sw im
some one</w>
ser i
san té</w>
s éri
s ati
sati s
s ac
ri ère</w>
res ter</w>
re ci
r ais
prof ess
probl èmes</w>
pri x</w>
pr ess
po s</w>
pass er</w>
n or
mil k</w>
mani ère</w>
main s</w>
mag as
m ents</w>
m ent
lo se</w>
langu es</w>
laiss é</w>
l u</w>
l es
k et</w>
in di
im porte</w>
igno re</w>
i a</w>
hab ite</w>
h ind</w>
h al
g éni
g é</w>
g le</w>
fi gu
f ell</w>
every body</w>
entre prise</w>
ense ign
enn ent</w>
en ing</w>
el lement</w>
du r</w>
dor mir</w>
diff éren
dev ez</w>
d avantage</w>
cti ve</w>
con fi
cl ass</w>
ck y</w>
ck et</w>
ch aque</w>
car eful</w>
c ré
c le
bl ack</w>
be hind</w>
be come</w>
b a
ay ing</w>
ay ed</w>
atu re</w>
at tr
at eur</w>
arriv ed</w>
ar ro
ap pris</w>
ap pr
ang ry</w>
an née</w>
al most</w>
ag o</w>
ag no
ac tu
V eux</w>
S om
P eut</w>
M ay
Eu ro
C on
A mer
1 9
wor ry</w>
wor ks</w>
wor ds</w>
won der</w>
who le</w>
w ouldn</w>
vo is</w>
vi sion</w>
v é
u m
tri p</w>
tr om
t elle</w>
t ab
surpri sed</w>
su ff
sto re</w>
sti tu
st and
ser v
sem bl
s se</w>
s af
ro ad</w>
ri che</w>
rencontr er</w>
re as
r end
r ac
qui te</w>
quat re</w>
puis se</w>
po m
pho to
peu vent</w>
pay er</w>
pati ent</w>
p re</w>
p ped</w>
p li
oth ers</w>
nouv elles</w>
n i</w>
mo ts</w>
mar ché</w>
mar che</w>
mang é</w>
la quelle</w>
l av
k y
k illed</w>
interes ted</w>
hi gh</w>
heu reuse</w>
h é
h ai
g ame</w>
for get</w>
fo re
fe u</w>
f ont</w>
f lu
f low
exac tly</w>
ex peri
ent endre</w>
en vie</w>
e re</w>
dé r
dev riez</w>
der rière</w>
decid ed</w>
d ar
d a</w>
con que</w>
com es</w>
cel ui</w>
c ked</w>
c ity</w>
c ess</w>
c ass
bu il
bet ween</w>
b as
att endre</w>
att end
ar ing</w>
an n
am our</w>
am is</w>
all ons</w>
ain st</w>
ain si</w>
ai ls</w>
Whi ch</w>
V oul
V oi
T ous</w>
T ell</w>
Som e
S e
J ust</w>
In tern
D es</w>
A v
ér o</w>
è rement</w>
ç ons</w>
z ed</w>
y ours</w>
windo w</w>
w o
w ine</w>
us h</w>
uni on</w>
u re</w>
ton ight</w>
to wn</w>
ti é</w>
ti ent</w>
th en</w>
swim ming</w>
sup pos
su n
stu dents</w>
si t</w>
ser ai</w>
scienti fi
s and
ré us
ré f
ra di
r t</w>
pu ter</w>
profess eur</w>
proch ain</w>
pro pos</w>
pr u
pouv ait</w>
pen ses</w>
or der</w>
on es</w>
o ver
né cess
ne ws</w>
n es</w>
musi que</w>
mi di</w>
magas in</w>
m ess
m ange</w>
lors que</w>
lon ger</w>
le il</w>
l augh
k ey</w>
is te</w>
intelli gent</w>
inst ant</w>
in tention</w>
immédi at
immédiat ement</w>
ign or
i que</w>
he av
hand s</w>
gr ou
fu mer</w>
fr app
fi re</w>
fen être</w>
fatigu é</w>
fai m</w>
fa çon</w>
f s</w>
exp éri
exac tement</w>
en ir</w>
en g
ef forts</w>
e f</w>
e ep</w>
dé ci
don c</w>
daugh ter</w>
d anger</w>
d ance</w>
ct eur</w>
cr oi
cr az
cou ple</w>
cou p
co st</w>
cin q</w>
chau d</w>
ch ed</w>
c ès</w>
brea k</w>
bou lot</w>
bi ère</w>
bi li
be came</w>
barr ass
b res</w>
b es</w>
b er
b as</w>
appréci e</w>
ap poin
an ni
an e</w>
am us
am ment</w>
al s</w>
aiss ez</w>
ai mes</w>
ag ainst</w>
Voul ez</w>
T r
S ome</w>
S &apos;</w>
No tre</w>
M o
M es</w>
K eep</w>
Joh n</w>
E ar
3 0</w>
é qui
é p
ç u</w>
â ge</w>
wi m</w>
wat ching</w>
w ing</w>
vi s
ver re</w>
vac ances</w>
télé vision</w>
ti ve</w>
ti c</w>
th s</w>
tel ling</w>
t ats</w>
sû re</w>
su res</w>
stu dent</w>
star t</w>
st e
so lu
sho t</w>
sh or
s wim</w>
s pend</w>
s avez</w>
rou te</w>
r un
pê cher</w>
publi c</w>
pré sen
pr end
po or</w>
pl e
parl é</w>
p ast</w>
onn é</w>
o ds</w>
nécess aire</w>
no on</w>
ne cess
n y</w>
mau vais</w>
ma king</w>
m us
lu cky</w>
loo ked</w>
li ez</w>
le c
lar ge</w>
langu ages</w>
l ou
l friend</w>
l eurs</w>
ky o</w>
j et
im pres
i c</w>
hu m
ho sp
h am
gir lfriend</w>
g én
g â
g y</w>
fi ed</w>
fer ai</w>
f our</w>
f ou
f lo
eu illez</w>
es ti
erreu r</w>
endr oit</w>
en te</w>
en jo
el e
e i
dis cu
dev rions</w>
derni er</w>
de ath</w>
dar k</w>
d ess
d ate</w>
craz y</w>
cr u
con v
con tri
con ten
con di
con c
commenc é</w>
cl ear</w>
ci p
ci al</w>
ch aus
ch ap
cer tain</w>
c ine</w>
bicy cle</w>
b out</w>
b ab
app reci
apon ais</w>
amou reux</w>
am é
ai rs</w>
ag ree</w>
V i
V euillez</w>
To kyo</w>
S t
P ouvez</w>
N ew</w>
M er
I tal
B e</w>
All ez</w>
ô le</w>
è ne</w>
y si
wri tten</w>
voul ons</w>
voudr ais</w>
ven ue</w>
utilis er</w>
univer si
té es</w>
ty pe</w>
trou ble</w>
tr adu
to ri
ti mi
thin ks</w>
ter re</w>
t ation</w>
sé curi
sécuri té</w>
sum mer</w>
suc re</w>
su s</w>
st ri
so yez</w>
slee ping</w>
si bili
shi rt</w>
ser ais</w>
sand wi
s te</w>
s aying</w>
s ai
ré union</w>
ré par
res se</w>
regar de</w>
re li
re cher
ra ther</w>
r un</w>
r as
pré par
prom ise</w>
probab ly</w>
pr on
pou vais</w>
play ing</w>
pers onnes</w>
p é
p as
ous ly</w>
ori te</w>
ni fi
n ear</w>
musi c</w>
mo vie</w>
mau v
mag az
m é</w>
lun ch</w>
low ed</w>
li bre</w>
leav ing</w>
l i</w>
l ater</w>
k o</w>
k in
im possible</w>
idi ot</w>
hun gr
hungr y</w>
hosp ital</w>
hom mes</w>
ho tel</w>
heal th</w>
gén ér
g ne</w>
g es</w>
g enti
g ar</w>
fav orite</w>
fac il
f ine</w>
f as
essay é</w>
ent y</w>
end ed</w>
en voy
em ents</w>
el s</w>
eas ily</w>
désol ée</w>
di pl
di e</w>
dev ant</w>
de ci
d onne</w>
d ly</w>
d enti
cuis ine</w>
corre ct</w>
contri bu
conna ît</w>
condu ire</w>
con stru
co o
clo se</w>
cl asse</w>
ci er</w>
ci el</w>
choi x</w>
chem ise</w>
ch ats</w>
cau ght</w>
cap able</w>
c te</w>
c is
bé bé</w>
be er</w>
bab y</w>
b on
b oire</w>
b and</w>
attr ap
at en</w>
arro g
arri ver</w>
al so</w>
al ors</w>
T o</w>
T i
T erre</w>
P our</w>
May be</w>
M .</w>
G ar
E t</w>
Di eu</w>
Com me</w>
Ch rist
Amer ic
A t</w>
A h</w>
î tre</w>
î te</w>
ë l</w>
étr anger</w>
éti ez</w>
ét oi
équi pe</w>
él è
é pous
è tement</w>
è que</w>
â mes</w>
z z
ven us</w>
v ê
v a
un k</w>
té lé</w>
ti cket</w>
th es</w>
ter noon</w>
tea m</w>
tax i</w>
ta king</w>
t ée</w>
t rem
sy m
sui v
sto od</w>
st ayed</w>
sou hai
sor te</w>
smo king</w>
si te</w>
ser ez</w>
saf e</w>
s ez</w>
s car
s avait</w>
ri ed</w>
res semble</w>
rencontr é</w>
ref us
re tour
re l
re gre
re ali
radi o</w>
r endu</w>
r ends</w>
r ain
probl ems</w>
pro pre</w>
pos er</w>
pi re</w>
pens er</w>
pati ence</w>
on ed</w>
o pened</w>
o bli
num éro</w>
mon tre</w>
mon th</w>
mo y
mist ake</w>
man qu
lé ch
list en</w>
li se</w>
li es</w>
lear ned</w>
le ast</w>
ke pt</w>
it ted</w>
it ed</w>
ir ai</w>
in stru
in ess</w>
in a</w>
im port
im medi
ill é</w>
hô tel</w>
hô p
ho se</w>
hal f</w>
gu ess</w>
gar çons</w>
gar d
g er
fru it</w>
for got</w>
expéri ence</w>
ex ist
et ely</w>
er t
ent ôt</w>
en vir
em barrass
em and</w>
ef fe
ea d</w>
e g
décid é</w>
dr oit</w>
dr oi
differ ent</w>
der ed</w>
d ge</w>
cu r
cour age</w>
cont ent</w>
confi ance</w>
conc entr
con st
con om
compl etely</w>
com puter</w>
com pris</w>
co ol</w>
co at</w>
clo ck</w>
ci eux</w>
choi ce</w>
char ge</w>
ch ant
c ô
c ks</w>
c elle</w>
c ats</w>
c ake</w>
c ad
bo îte</w>
bo th</w>
b â
au rait</w>
atten d</w>
appreci ate</w>
ap pro
ap pe
any body</w>
an tes</w>
amé li
all ez</w>
all emand</w>
al ité</w>
ak fast</w>
ai lle</w>
af fai
ac k
ac h</w>
ac cus
T ou
S top</w>
Pen ses</w>
N ow</w>
M r</w>
L ors
L o
J ane</w>
Intern et</w>
Ger man</w>
G od</w>
D é
D onne</w>
D ites</w>
C et</w>
C ert
Austr ali
Ar rê
A méri
étudi ants</w>
â tre</w>
â che</w>
w ro
wro te</w>
w he
w ed</w>
visi te</w>
veill é</w>
v aut</w>
v al
u m</w>
trou ver
trav ers</w>
tou ch</w>
tom ber</w>
ti es</w>
th y</w>
th day</w>
t une</w>
t oi
t ent</w>
sur pris</w>
suc ce
su ite</w>
su gg
stupi d</w>
stu me</w>
st op
spe e
sor t</w>
sle pt</w>
sh ouldn</w>
senten ce</w>
secon d</w>
s mar
s li
réf léch
ri re</w>
re al</w>
r ar
prof es
probab lement</w>
pri v
pres ent</w>
pre fer</w>
pr end</w>
pos te</w>
pois son</w>
po i
pl eas
pic ture</w>
ph ysi
per dre</w>
par viens</w>
par a
pap er</w>
pan ish</w>
p is
p es</w>
p en</w>
p ai
oy ez</w>
ordin ateur</w>
or k</w>
nom bre</w>
nee ded</w>
necess ary</w>
mon t
minu te</w>
mi gn
mess age</w>
mar ry</w>
m oun
m oi
m em
m am
lu mi
li ked</w>
le gs</w>
l è
ke ys</w>
ke e
jour n
je ct</w>
invit ed</w>
in stitu
in side</w>
imag in
il o
hôp ital</w>
hur ry</w>
has n</w>
h y
h our</w>
h it</w>
h au
gro sse</w>
gro s</w>
gl asses</w>
gi e</w>
gen re</w>
g t</w>
g one</w>
g in
fu rent</w>
fo ot
flow ers</w>
flo or</w>
fl eurs</w>
feel ing</w>
fam ili
facil ement</w>
experi ence</w>
exp li
ex er
ex cus
ess aie</w>
esp agno
espagno l</w>
er ed</w>
empl oi</w>
em br
dri ve</w>
donn er</w>
dis pose</w>
dea d</w>
cu se</w>
cour ant</w>
con sci
compl ètement</w>
compl e
com prends</w>
co stume</w>
co p
co ok</w>
clo thes</w>
cle an</w>
chang é</w>
chang ed</w>
ch anc
ca se</w>
c u</w>
c tions</w>
c aus
bu t
bro ke</w>
bo x</w>
bl an
bir thday</w>
bi entôt</w>
beg an</w>
b ag
ay ez</w>
au tom
at ever</w>
arti cle</w>
arrê té</w>
appel é</w>
améli or
all ait</w>
ag ent</w>
af ternoon</w>
af fi
admi re</w>
ac ked</w>
ab solu
ab les</w>
ab and
a p</w>
a kes</w>
Voi ci</w>
To day</w>
S panish</w>
S m
S es</w>
Pour riez</w>
Ou i</w>
Mer ci</w>
Every body</w>
Ear th</w>
Au c
œ il</w>
ê tres</w>
ér er</w>
ég alement</w>
è de</w>
z ar
wer en</w>
we aring</w>
was h</w>
wal ked</w>
w in</w>
vo lon
vi ol
vi de
veu lent</w>
vers aire</w>
v end
us ing</w>
us band</w>
tr a</w>
ti ce</w>
th er
termin é</w>
tem p
tal ked</w>
tai lle</w>
ta kes</w>
ta ken</w>
t ex
t est</w>
suppos ed</w>
su spe
su n</w>
su gar</w>
str ong</w>
star s</w>
stand ing</w>
st re
spo ke</w>
sou viens</w>
so leil</w>
so l</w>
smo ke</w>
sim ple</w>
si eurs</w>
sho es</w>
see m</w>
se a</w>
sav ent</w>
sa c</w>
s we
s qu
s ement</w>
ré sou
ré si
ré p
ri ver</w>
ri de</w>
respe ct</w>
ren trer</w>
re voir</w>
re ti
rap id
pré si
prom is
produ it</w>
pr ête</w>
pos sibili
play ed</w>
per fe
pens ez</w>
pen sive</w>
par fois</w>
p ea
oun ds</w>
oi vent</w>
occup ée</w>
oc cas
obli g
o is</w>
nom b
nomb reux</w>
nei ge</w>
nee ds</w>
n et
moi tié</w>
mo indre</w>
mis sion</w>
mil li
meill eu
mari er</w>
mar cher</w>
man teau</w>
man che</w>
m as</w>
low ing</w>
lo ved</w>
li br
lear ning</w>
l ine</w>
l and</w>
k ill</w>
k er</w>
j aponais</w>
inté ri
interes ting</w>
in qui
in no
immedi ately</w>
il es</w>
i es</w>
heav y</w>
hap pen
h usband</w>
h onn
h ing</w>
gâ teau</w>
gr atu
gl ass</w>
gh ts</w>
gen er
g ence</w>
g au
g are</w>
g an
fr ont</w>
for ward</w>
fer a</w>
fem mes</w>
feel ings</w>
fac t</w>
f our
f asse</w>
exam en</w>
ex pensive</w>
ex c
every one</w>
ev ening</w>
et y</w>
et tre</w>
es prit</w>
empl oy
em an</w>
e aux</w>
e aten</w>
dé sor
dé couver
dor t</w>
discu ter</w>
deven u</w>
dev i
des sus</w>
dea l</w>
danger ous</w>
d ans
cô té</w>
cu te</w>
ct ement</w>
cro s
cour se</w>
cou v
cor ri
cont in
conse ils</w>
comp li
comp ag
comm ence</w>
co ll
cl és</w>
chap eau</w>
ce i
c ts</w>
c eux</w>
bre akfast</w>
bou te
bli oth
bless é</w>
bi blioth
at ti
ar me</w>
ar e
anni versaire</w>
anim al</w>
an ti
all ée</w>
ag it</w>
ad resse</w>
ab sent</w>
Y ork</w>
Y es</w>
U ni
Sm ith</w>
S h
Pu t</w>
No ël</w>
N on</w>
Lors que</w>
L i
L aissez</w>
H ere</w>
G o</w>
F ais</w>
D is</w>
D is
Ch il
C o
étudi er</w>
én er
écou ter</w>
é vit
é tions</w>
é cl
É tats</w>
z o
zo o</w>
x i
wri ting</w>
wor ked</w>
won der
voi tures</w>
viend ra</w>
vie il</w>
vi ère</w>
vi es</w>
vi dé
v ement</w>
ur al</w>
um bre
tro du
tre z</w>
tr an
tom b
thé âtre</w>
thé ori
théori e</w>
th re
terri ble</w>
t ree</w>
t ears</w>
suff is
suc cès</w>
stupi de</w>
stu d
stud ying</w>
st es</w>
st airs</w>
spea ks</w>
sor t
some times</w>
som me
somme il</w>
smar t</w>
sig nifi
si ez</w>
shor t</w>
servi ce</w>
senti ments</w>
s pr
s now</w>
répon dre</w>
ro ck</w>
ri vière</w>
respon s
reas on</w>
reali ze</w>
re venir</w>
re g
re co
rapid ement</w>
ra se</w>
r ée</w>
r on
r am
qui ck
quick ly</w>
préfér ée</w>
préf ère</w>
pr acti
port ait</w>
plu sieurs</w>
plu part</w>
pleu rer</w>
pl eut</w>
pl ays</w>
pl ai
pl ac
pie ds</w>
pi ed</w>
ph rase</w>
pe in
pau vre</w>
part i</w>
parl ez</w>
par o
par k</w>
p at
our ces</w>
onn ez</w>
on er</w>
oi e</w>
occas ion</w>
o w
no v
nei gh
n ature</w>
n ation
n at
musi ci
mu l
moun tain</w>
mi li
mauv aise</w>
mar i</w>
man u
man que</w>
magaz ine</w>
m en</w>
m as
lun ettes</w>
lumi ère</w>
libr ary</w>
l o</w>
ki ds</w>
k ni
journ al</w>
jam bes</w>
j oin</w>
j eu</w>
ir re
institu teur</w>
inno cent</w>
in vol
in ven
in trodu
in ed</w>
in ce</w>
id enti
i dent</w>
hor ri
ho od</w>
hist ory</w>
hi gh
heu re
gu ys</w>
gu es</w>
go es</w>
g ni
g ing</w>
g ets</w>
for tune</w>
foot ball</w>
fer ais</w>
fam ous</w>
fai sait</w>
f re
f ou</w>
ey e</w>
exer ci
ex ist</w>
eu sement</w>
esp ér
ent ly</w>
ent end
enseign ant</w>
en ez</w>
ei ther</w>
e il</w>
e ating</w>
désor mais</w>
dé si
dé couv
dé cl
dr unk</w>
dou ble</w>
dor mi</w>
dis cours</w>
dipl om
di v
di tes</w>
dev oir</w>
des tin
des er
danger eux</w>
ctionn aire</w>
cti on
cr ying</w>
cr as
cour ag
cou s
concer t</w>
commenc er</w>
comm and
co pi
clo sed</w>
cl é</w>
ci ous</w>
cho col
chaus sures</w>
ch ante</w>
ch anger</w>
car te</w>
c les</w>
c ated</w>
c atch</w>
c ard</w>
c and
c anc
buil ding</w>
bro ken</w>
bo ys</w>
bo is</w>
biblioth èque</w>
bal le</w>
b ons</w>
au tori
arri ère</w>
arri ver
appoin ted</w>
ap er</w>
ang es</w>
anc ed</w>
an to</w>
ain tenant</w>
ai ses</w>
af faire</w>
ad v
ad dress</w>
ac ro
ac i
ab or
Vo tre</w>
U nis</w>
U S
T ur
T on</w>
S un
R ien</w>
No t</w>
M ême</w>
M i
M al
M aintenant</w>
L in
L e
Gar de</w>
Euro pe</w>
E ven</w>
D onnez</w>
D e
D &apos;</w>
Christ mas</w>
C e
C an
An d</w>
é cu
whe ther</w>
wh atever</w>
wee k
week end</w>
w el
w ear</w>
voul oir</w>
vin gt</w>
vie w</w>
vie ille</w>
ver n
v ali
usu ally</w>
usu al</w>
us hed</w>
un cle</w>
umbre l
umbrel la</w>
trem bl
trav er
trans l
ti s
ti en</w>
ti di
the ory</w>
ten u</w>
tel ev
telev i
televi sion</w>
tea ch</w>
t wi
t end
t ais</w>
t aire</w>
sur viv
suffis amment</w>
su per
su it</w>
str ange</w>
st om
st ed</w>
st at
spea king</w>
some where</w>
sol ve</w>
soci été</w>
so li
sk y</w>
sin gle</w>
sil en
si è
si ght</w>
sho p</w>
sh all</w>
senten ces</w>
see ing</w>
secre ts</w>
sau f</w>
sandwi ch</w>
s port</w>
s por
s ound</w>
réus si</w>
résou dre</w>
run ning</w>
ru m
ri bu
ren tr
ren contre</w>
regar dé</w>
regar d
ras es</w>
rai ent</w>
ra con
r est</w>
r appeler</w>
r an</w>
quo tidi
quel conque</w>
pron on
proch aine</w>
pro jet</w>
pro che</w>
prin temps</w>
pri ce</w>
pr un
pr ou
pr ati
pos t</w>
pos ition</w>
popul ation</w>
popul ar</w>
poi ds</w>
ple in</w>
pl y</w>
pl ain
photo s</w>
ph rases</w>
para pluie</w>
par ed</w>
pap ier</w>
p a
out side</w>
oul eur</w>
ou x</w>
or gan
or able</w>
onn er</w>
on cle</w>
ol der</w>
o we</w>
o d
net to
n ez</w>
n eu
mor al</w>
mont agne</w>
mon trer</w>
meilleu re</w>
me an</w>
mari é</w>
mar ket</w>
mal adi
m ée</w>
m our
m eu
m es
lev é</w>
le ep</w>
l y
l in
l ez</w>
l ap
kis s</w>
j ar
is su
intéri eur</w>
inté rê
imag ine</w>
im pro
im pli
hu it</w>
hom as</w>
hi ver</w>
her self</w>
gu erre</w>
grou pe</w>
gre at
gr an
go tten</w>
gi ves</w>
gi ven</w>
g é
g un</w>
g ed</w>
g am
fu ll</w>
fr on
for tun
for table</w>
for c
fin ish</w>
figu red</w>
figu re</w>
fau l
fall u</w>
fai sons</w>
f un
f eu
f at</w>
expl o
expe ct</w>
exist ence</w>
eu ses</w>
et h</w>
es ses</w>
er n
entr ée</w>
enn es</w>
enjo y</w>
end or
embr ass
em prun
ear th</w>
dét ermin
dr a
do gs</w>
dist ance</w>
dis co
dire ction</w>
di manche</w>
di ctionnaire</w>
di ction
diction ary</w>
deven ir</w>
demand er</w>
d om
cu p</w>
cro y
cor respon
conn u</w>
comple te</w>
comm en
col le
cin é
cher ch
chan son</w>
cap it
cad eau</w>
c y</w>
c used</w>
c ents</w>
c eau</w>
c ach
br u
bo y
blo od</w>
bi zar
bi ke</w>
beg in
ba g</w>
b u</w>
b our
b le
b et</w>
b el
av enir</w>
av ance</w>
au tour</w>
au g
att e
at a</w>
ar ds</w>
ar ch
app le</w>
apo logi
an ks</w>
ami es</w>
am bi
all és</w>
al ity</w>
ain ed</w>
ai tes</w>
ai r
ai l</w>
ag re
affi c</w>
affai res</w>
advi sed</w>
ad di
ab road</w>
a î
W ill</w>
Vi ens</w>
Th ank</w>
T homas</w>
T &apos;</w>
S oyez</w>
S o</w>
Quel qu&apos;</w>
P ro
P ren
P e
No s</w>
J u
J e
H el
F ri
F aites</w>
Chil dren</w>
Ch in
C onn
Auc un</w>
&apos; clock</w>
œu fs</w>
û t</w>
étr ange</w>
étoi les</w>
ét at</w>
éren ce</w>
épous er</w>
é v
wor th</w>
wor se</w>
vê tem
vêtem ents</w>
vé cu</w>
viv ent</w>
vis age</w>
viend rai</w>
vidé o</w>
vide o</w>
vern ment</w>
vac ation</w>
va se</w>
v ont</w>
v is</w>
v eau</w>
under stood</w>
twi ce</w>
tu é</w>
tu er</w>
trom p
travaill é</w>
trav el</w>
tran qu
tr ust</w>
tr on</w>
tr affic</w>
tom bé</w>
ti ment</w>
thir ty</w>
th i
ter ed</w>
ter ai</w>
te aux</w>
t al</w>
sur prise</w>
sur ance</w>
sup er</w>
sui vre</w>
st y
st ing</w>
spr ing</w>
spo ken</w>
spee ch</w>
sor s</w>
som met</w>
so lution</w>
so f
seri ous</w>
ser ont</w>
ser as</w>
se at</w>
satis fied</w>
san g</w>
s ong</w>
s oin</w>
s end</w>
répon se</w>
ré alis
ro be</w>
ri te</w>
res ul
res té</w>
rend ez</w>
recher che</w>
re çu</w>
re turn</w>
re qui
re jo
re fu
re cei
rais ons</w>
r i</w>
qui et</w>
qu ement</w>
qu ar
pun ctu
prê ter</w>
prési dent</w>
préfér é</w>
pré sent</w>
pré sent
propos ition</w>
pro pr
propr es</w>
press ed</w>
pre pared</w>
pos t
por té</w>
por tun
por tes</w>
pon ctu
pom mes</w>
poli ti
po ol</w>
po n</w>
pleu voir</w>
pleas ed</w>
pl es</w>
pl ais
pis cine</w>
pie ce</w>
pi zz
pers on
per su
per mission</w>
pay é</w>
pau se</w>
parl ent</w>
par c</w>
p éri
p reu
p il
p ends</w>
p agne</w>
ouver t</w>
oubli e</w>
ori gin
op portun
on y</w>
on g
on de</w>
on d</w>
oi s
of fen
o s</w>
o per
nu e</w>
ni e</w>
ner vous</w>
n on
n ement</w>
moy en</w>
mo ved</w>
mo ve</w>
mist akes</w>
mis sed</w>
mi enne</w>
man quer</w>
m ets</w>
m enti
m ea
m ate</w>
lun di</w>
lo ts</w>
lic en
li k
les son</w>
le çon</w>
la c</w>
l ly</w>
l ea
l am
k it
kit ch
kitch en</w>
k il
jeu nes</w>
jar di
jardi n</w>
j eux</w>
j ets</w>
invol ved</w>
intéress ant</w>
in sul
in ju
in cre
ilo so
i ze</w>
i m</w>
i an</w>
hé ro
hy po
hum eur</w>
hon te</w>
ho ld</w>
ham ed</w>
h aut</w>
gu y</w>
gu it
go vernment</w>
gen i
gau che</w>
gag ner</w>
g res
g ent
fu lly</w>
fu ck</w>
fri end
fr oi
for m</w>
for ce</w>
fin ally</w>
f all</w>
expe cted</w>
eu m</w>
et tez</w>
erreu rs</w>
er gy</w>
envoy é</w>
enn em
end ing</w>
en em
en ed</w>
em ment</w>
eg gs</w>
ef f
découver t</w>
déci sion</w>
dé pend</w>
du re</w>
du e</w>
dri ving</w>
dre am
do cteur</w>
div or
dist ribu
dis appointed</w>
det ermin
dans er</w>
d riez</w>
d res</w>
d om</w>
d eli
cul ture</w>
cu re</w>
cu e</w>
ct ly</w>
cri me</w>
cr oit</w>
cour t</w>
coun t</w>
cou pe</w>
corre ctement</w>
coo king</w>
conv ain
contin u
consi dered</w>
conse il</w>
conna ître</w>
condi tion</w>
compl ain
com man
com fortable</w>
choi sir</w>
che ck</w>
chan ter</w>
ch on</w>
ce pt</w>
car ry</w>
canc er</w>
c oin</w>
bâ timent</w>
bus iness</w>
br û
bat eau</w>
b lu
b ill
b ar</w>
b ais
bais er</w>
av er
au th
attrap é</w>
att ends</w>
at eurs</w>
as su
as sist
as leep</w>
as hamed</w>
app ed</w>
ap parti
ann ées</w>
anim aux</w>
an nu
an k
am a</w>
al tern
al ong</w>
al lu
al lowed</w>
al ie</w>
al es</w>
ais ons</w>
ain ement</w>
aim é</w>
aim ait</w>
ai rement</w>
ai ll
af in</w>
actu ally</w>
acro ss</w>
ach es</w>
ac cused</w>
ab ili
a h</w>
W i
Un ited</w>
Sun day</w>
Su is</w>
S o
S how</w>
S al
Pren ez</w>
Pour rais</w>
P rom
P as</w>
O n
O K</w>
Mon day</w>
Lo ok</w>
Lin da</w>
L on
K ate</w>
J im</w>
Ex cuse</w>
Chin ese</w>
Cert ains</w>
Cel ui</w>
Ce ci</w>
C ro
C or
Bo b</w>
B ri
B ien</w>
Australi a</w>
Austr alie</w>
Au jourd&apos;</w>
Arrê tez</w>
Americ a</w>
All em
A t
A m</w>
20 1
œu f</w>
étudi ant</w>
ét e
ét age</w>
ér ent</w>
éni ent</w>
én or
écu reu
éch ou
é qu
é lic
é conom
è le</w>
è g
â le</w>
y o
wom en</w>
windo ws</w>
win ter</w>
wi se</w>
who se</w>
whi te</w>
we ight</w>
we d
war ned</w>
w sp
wsp aper</w>
vrai e</w>
voi s
vo lution</w>
visi ted</w>
vi ennent</w>
vers ation</w>
vend re
vendre di</w>
ve ille</w>
ve get
v el
uti le</w>
us an</w>
up stairs</w>
tranqu ille</w>
timi de</w>
ti n</w>
ti f</w>
thir st
thirst y</w>
th qu
th em
ter a</w>
te eth</w>
te en</w>
te a</w>
ta le</w>
t ask</w>
t all</w>
séri eux</w>
sé par
sym bo
suspe ct</w>
succe e
succee ded</w>
sto ri
sp é
sp ent</w>
sp ace</w>
son ge</w>
sol di
sol d
so oner</w>
sil ent</w>
sig ne</w>
si on
sho wer</w>
shi p</w>
sh y</w>
seri ously</w>
sem bles</w>
sem aines</w>
sel on</w>
se pt</w>
scientifi que</w>
scar ed</w>
sal le</w>
sa che</w>
s our
s low</w>
s is</w>
s he
s ever
s cen
s age</w>
ré sul
ré s</w>
ru de</w>
rom an</w>
ri t</w>
retour ner</w>
respons able</w>
respon sible</w>
respe c
reco gni
recei ved</w>
re venu</w>
re qu
re port</w>
re pas</w>
re mar
re ach</w>
rap port</w>
rain ing</w>
r us
r ue</w>
r ont</w>
r hu
r appelle</w>
r and
qu ée</w>
qu it</w>
pê ché</w>
puis s
présen ter</w>
prom en
produ ire</w>
pro te
pos s
port able</w>
pom me</w>
po ir</w>
pl enty</w>
pl ea
pl age</w>
pi r
ph iloso
per te</w>
pass ed</w>
parti es</w>
parl ait</w>
par tout</w>
par avant</w>
pain ted</w>
pa tron</w>
p én
p y
p us</w>
p aid</w>
p age</w>
ouver nement</w>
ouv rir</w>
out ons</w>
ou i</w>
or ange</w>
op ér
oi si
oi rs</w>
o li
o k
nov el</w>
ne wspaper</w>
nat ural</w>
n s</w>
n ers</w>
n atu
natu re
n age</w>
mou rir</w>
mor ceau</w>
mon di
mo r</w>
mo der
mi se</w>
me ans</w>
mati ques</w>
mari age</w>
mar re</w>
mar ch
man ager</w>
m ê
m ille</w>
m el
lé gu
lu m
lu ck</w>
lo ves</w>
lo ss</w>
lo r</w>
list ening</w>
lik ely</w>
li èrement</w>
li er</w>
let erre</w>
le g
lav er</w>
laugh ing</w>
lar mes</w>
la w</w>
l is</w>
l ever</w>
l ar</w>
l ais
jus tice</w>
ju g
jou é</w>
jo lie</w>
is me</w>
is hing</w>
intérê t</w>
inju red</w>
in t
in conv
inconv énient</w>
impres sion</w>
impres si
im um</w>
im p
ill er</w>
il la</w>
ig ner</w>
ig n</w>
i des</w>
hur ried</w>
hu man</w>
hel ped</w>
hel d</w>
he ad
has ard</w>
har dly</w>
h â
h eur</w>
great est</w>
gr ap
ge ons</w>
gard en</w>
gar s</w>
gar de</w>
gar age</w>
g row</w>
g ouvernement</w>
g leterre</w>
g agne</w>
fu r
fortun ately</w>
for me</w>
fol lowing</w>
fi x</w>
fi x
fer mer</w>
fen êtres</w>
fe et</w>
famili ar</w>
fai te</w>
f illed</w>
f ar
expli quer</w>
expl ain</w>
ex ig
et er</w>
esp ace</w>
es poir</w>
es cap
er y</w>
er t</w>
er ing</w>
ennu is</w>
ennem i</w>
enem y</w>
en ergy</w>
el ess</w>
eff et</w>
e qu
dét ails</w>
découv rir</w>
dé tru
dé s
dé part</w>
dé li
dé but</w>
dres sed</w>
dou b
donn a</w>
dis ent</w>
dis cus
differ ence</w>
diff érent</w>
dev int</w>
det ails</w>
destin ation</w>
demand a</w>
dem i</w>
deci sion</w>
de pends</w>
dd en</w>
d oivent</w>
d ness</w>
d el
d am
cus ez</w>
cuis in
cu stom
cri ti
cri min
cr y</w>
cr u</w>
cor ps</w>
copi es</w>
cop ine</w>
conten te</w>
consi dér
con versation</w>
con clu
compag nie</w>
comm uni
comm un
com pos
com port
com mon</w>
co sts</w>
ck ets</w>
ci ble</w>
cho ose</w>
ch ur
ch in
cert ains</w>
cass é</w>
car s</w>
c ev
c esse</w>
c as</w>
bu l
bri ll
br ought</w>
boy friend</w>
boute ille</w>
bizar re</w>
begin ning</w>
b un
b onnes</w>
b oi
b ly</w>
b each</w>
b att
aw ake</w>
aw a</w>
av oid</w>
av is</w>
autom ne</w>
au riez</w>
au paravant</w>
ati ves</w>
as si
as se
arriv ée</w>
are a</w>
ar bre</w>
appe ar
apparti ent</w>
anc y</w>
an ci
amélior er</w>
amou reuse</w>
all ais</w>
ai mer</w>
ai ment</w>
ai es</w>
ai der
ag ue</w>
ag ed</w>
af f
acti vit
ac t
ab sur
ab o
a che</w>
V ou
Tou tes</w>
Se e</w>
S usan</w>
S pea
S ou
S ince</w>
S avez</w>
S ans</w>
R us
R es
Par lez</w>
P ri
P rends</w>
No thing</w>
M ets</w>
M ake</w>
M ais</w>
J us
J ou
I s
G u
G re
G o
Fri day</w>
Ex cusez</w>
Every thing</w>
E sp
E s
E i
Ch ar
Bo th</w>
B u
B ill</w>
Av ec</w>
Ap p
An gleterre</w>
Améri que</w>
A n</w>
A im
A f
5 0</w>
1 1</w>
0 00</w>
ô tre</w>
ô mes</w>
évit er</w>
étudi e</w>
étr ang
éner gie</w>
él ev
ég lise</w>
éch ec</w>
é lec
é cras
èg les</w>
è se</w>
z y</w>
yo to</w>
y ons</w>
y e</w>
x ante</w>
wor st</w>
wor ried</w>
wonder ful</w>
wo re</w>
wee ks</w>
wed ding</w>
wat ched</w>
was te</w>
war m</w>
w yer</w>
w ar</w>
w ake</w>
voy ez</w>
voi e</w>
vo lun
viv ant</w>
visi ter</w>
vir us</w>
vi de</w>
vi ct
ver ti
ver se</w>
ver ed</w>
ven ait</w>
v ues</w>
v endre</w>
v an
us ement</w>
up set</w>
universi té</w>
universi ty</w>
univer se</w>
uni vers</w>
tun nel</w>
tt on</w>
tro l</w>
tri es</w>
tre es</w>
tre ated</w>
trans late</w>
tr ente</w>
tr adi
tr a
tour n
tou ched</w>
tou che</w>
to ys</w>
ti re</w>
ti onn
ti on
ti e</w>
thre w</w>
th é</w>
th ank</w>
ter ais</w>
ten d</w>
tel y</w>
tel e
tele phone</w>
te ch
tal ks</w>
tab l
t âche</w>
t ons</w>
t es
t at
t asse</w>
t aller</w>
t ait</w>
sym p
sup pl
suppl é
suc cess</w>
su f
stre et</w>
stop ped</w>
ste m</w>
stat ue</w>
star ting</w>
squ irre
souv enir</w>
sou l</w>
sou ci</w>
sor tes</w>
sol u</w>
soi f</w>
so ld</w>
so i</w>
sk i
sin gs</w>
sin ger</w>
sig n</w>
si ze</w>
si té</w>
si ty</w>
sh ar
sever al</w>
ser ved</w>
sen si
sembl ez</w>
sel ves</w>
se x
se par
scen e</w>
s ounds</w>
s oul
s ell</w>
s c
s ays</w>
répar er</w>
réfléch ir</w>
ré veillé</w>
ré jou
réjou is</w>
run s</w>
ru les</w>
ro r</w>
ro b
ri fi
ri er</w>
ri di
ridi cu
rhu me</w>
res te</w>
rencontr ée</w>
reli gi
regre t</w>
reg ard</w>
ref used</w>
reas ons</w>
re mer
re ly</w>
re faire</w>
re connaiss
rar ement</w>
rac le</w>
r ôle</w>
r ègles</w>
r ons</w>
r is</w>
r as</w>
r ami
r ag
r ab
quit ter</w>
py rami
punctu al</w>
prépar er</w>
pru den
promis es</w>
profes sion
prob able</w>
pro té
pro per
pro ject</w>
prin cip
pri son</w>
prend rai</w>
pr êtes</w>
pr ess</w>
pr ennent</w>
pou le</w>
poli tique</w>
pois on</w>
po wer</w>
po t</w>
po li</w>
po l
plan ète</w>
plan et</w>
plai sir</w>
pl ans</w>
pizz a</w>
pic tures</w>
pi erre</w>
ph ones</w>
peti tes</w>
pers onn
perfe ct</w>
per mis</w>
pau v
pass ée</w>
par les</w>
p é</w>
p âle</w>
p y</w>
p sy
p ping</w>
p in</w>
p ass</w>
p ale</w>
p air</w>
ouver te</w>
ori ty</w>
op tions</w>
onn ement</w>
onn a</w>
om age</w>
of f
occup er</w>
occu pe</w>
obje cti
o re</w>
o pen
o logi
o de</w>
nu lle</w>
nouv el</w>
nor mal</w>
nom bre
nombre uses</w>
no te</w>
netto yer</w>
ne ar
n et</w>
n ations</w>
n ag
mé tr
my st
mus ée</w>
mus eum</w>
mu r
mon ths</w>
mon ter</w>
mo vies</w>
mo on</w>
min imum</w>
mi racle</w>
mi le</w>
mes ure</w>
mer veill
mem ory</w>
medi cine</w>
me ant</w>
mat ters</w>
mam an</w>
maladi e</w>
mai l</w>
ma thé
ma j
ma ch
m outons</w>
m itted</w>
m age</w>
lè ve</w>
lo ws</w>
lo i</w>
lo gy</w>
lis te</w>
licen se</w>
li st</w>
let ters</w>
leav es</w>
le g</w>
laugh ed</w>
la zy</w>
la wyer</w>
l our
l ors</w>
l end</w>
l eman</w>
l ake</w>
kni fe</w>
kis sed</w>
kin ds</w>
kee ps</w>
k ers</w>
k a</w>
jou ets</w>
it er</w>
it e
issu e</w>
invit é</w>
intéress é</w>
inter nation
instru ctions</w>
inqui ète</w>
incre as
in spi
in géni
in flu
in clu
import antes</w>
imagin ation</w>
imag iner</w>
im pressed</w>
im age</w>
ill ing</w>
il li
il ing</w>
i dé
hypo th
hun d
hund red</w>
hum our</w>
horri ble</w>
honn ête</w>
hon est</w>
hom e
home work</w>
hi de</w>
heure usement</w>
heal thy</w>
happen ing</w>
hap s</w>
hand le</w>
hab it
h ang
gu il
gu er
gro wing</w>
grand mother</w>
grand father</w>
gran des</w>
gr ound</w>
go û
gl and</w>
genti l</w>
gent leman</w>
gar der</w>
gam es</w>
gag né</w>
g érer</w>
g ho
fun ny</w>
fu ton</w>
fru its</w>
fr équ
fr ères</w>
fr omage</w>
fr ay
for d</w>
for ced</w>
fol low</w>
fo ods</w>
fin alement</w>
fi ght</w>
fi e</w>
feu illes</w>
fau te</w>
fas ter</w>
fai led</w>
f ly</w>
f ishing</w>
f f</w>
exerci se</w>
excus es</w>
ex iste</w>
ex cel
eu s</w>
eu ro
eu r
eu e</w>
es c
er iez</w>
er ait</w>
entr er</w>
ent ends</w>
enf ance</w>
end ra</w>
en ter</w>
en gag
embrass er</w>
embarrass ed</w>
em pêcher</w>
em porter</w>
em ain</w>
el ls</w>
el ing</w>
ef fray
eb all</w>
ear thqu
e ight</w>
décl ar
décid a</w>
dé f
droi ts</w>
droi te</w>
drin king</w>
dri ver</w>
dre am</w>
dr ank</w>
dr a</w>
dou che</w>
dis pu
dis par
dis ait</w>
dire ct</w>
difficul tés</w>
di sh
di am
devi ent</w>
dev oirs</w>
dev in
des c
de l</w>
de fe
dd le</w>
d y
d hood</w>
d ad</w>
cuis iner</w>
cru el</w>
cro w
cr is</w>
coû te</w>
coû t</w>
cous in</w>
coun tries</w>
cou rir</w>
cou cher</w>
corri ger</w>
contr at</w>
constru ction</w>
consi dé
consi der</w>
consci ence</w>
conf is
con vin
con sac
commen ça</w>
comm ent
com mer
cl ou
cl ass
ck en</w>
ciné ma</w>
ci de</w>
chur ch</w>
chil dhood</w>
chi ens</w>
cher cher</w>
cher che</w>
chanc eux</w>
ch u
ch ons</w>
ch ers</w>
ch all
cert aine</w>
cel e
cal me</w>
cal cul
ca che</w>
c it
c entre</w>
bur st</w>
bro wn</w>
bre ad</w>
br ing</w>
bo ttle</w>
bo ther</w>
bo at</w>
blu e</w>
blan c</w>
bicy cl
be l</w>
be d
bat tre</w>
ban an
b s</w>
b right</w>
b orrow</w>
b oit</w>
b it
b ill</w>
b en
b at</w>
b al</w>
b ac
av oc
au rions</w>
au l</w>
ation al</w>
ati n</w>
at or</w>
asse oir</w>
as h</w>
arrog ant</w>
arch ite
ar m
ar bres</w>
appel ez</w>
appar eil</w>
apologi ze</w>
ap e</w>
anim als</w>
ang les</w>
ang le</w>
anc é</w>
an xi
an us</w>
an u
an ak
am p</w>
ali ve</w>
al ph
al im
al ent
al cool</w>
agre ed</w>
ag gres
ad mitted</w>
ad mis</w>
ad er</w>
ad ap
ad a</w>
aci fi
accus é</w>
accep ter</w>
ac tion</w>
ac ted</w>
ac cept</w>
ac cent</w>
a qu
a jou
a .
Y ou
W hose</w>
W ere</w>
W atch</w>
Vo s</w>
V a</w>
Un fortunately</w>
US A</w>
Ti me</w>
T u
T ry</w>
T hose</w>
St ates</w>
Some one</w>
S pain</w>
Rus si
R é
R este</w>
Qu i
Pen sez</w>
Pe ople</w>
P res
P aul</w>
N ations</w>
N ancy</w>
M oi</w>
M at
M any</w>
Le ave</w>
L u
L ang
K yoto</w>
H ier</w>
Ger many</w>
F or
Esp agne</w>
En gland</w>
E very</w>
Dis pos
Di dn</w>
De puis</w>
Ch aque</w>
Can ada</w>
C all</w>
B y</w>
B re
Av ant</w>
An y</w>
An y
Améri c
Americ ans</w>
Allem agne</w>
Af ter</w>
A s
A près</w>
201 3</w>
19 8
19 7
étoi le</w>
ét er</w>
ét ang</w>
ér é</w>
énor me</w>
élè ves</w>
élè bre</w>
él u</w>
ég al</w>
écureu ils</w>
éch app
é vi
é veillé</w>
é puis
é go
è vre</w>
è tes</w>
è ce</w>
â ce</w>
y é</w>
y th
with in</w>
wel come</w>
we ir
we ars</w>
wal ks</w>
wai ted</w>
w n
w illing</w>
voy ager</w>
voul u</w>
voudr ait</w>
volun te
volon té</w>
vois ins</w>
voi là</w>
visi ons</w>
vi ve</w>
vi ons</w>
ver rai</w>
ven ez</w>
vel op
v us</w>
v oit</w>
v endu</w>
v al</w>
v aches</w>
us eful</w>
ur ry</w>
ur gence</w>
uni que</w>
u pon</w>
u g
tu r</w>
tu m
tum n</w>
tu de</w>
tru ck</w>
tre fois</w>
trai té</w>
tou cher</w>
tor t</w>
tomb ée</w>
toi let</w>
to tal</w>
to tal
total ement</w>
tis h</w>
ti z
the ater</w>
th row</w>
th out</w>
th ous
th ers</w>
terri bly</w>
ter ie</w>
tel ls</w>
tech no
tal ent</w>
tabl eau</w>
t ors</w>
t ment</w>
sé v
symp ath
sy stem</w>
supplé ment
sup port</w>
sup por
suiv i</w>
sui cid
suicid é</w>
suff it</w>
succe ed</w>
sub ject</w>
su spi
su it
sty lo</w>
stop ping</w>
st ate</w>
st ar</w>
spe ct
souhai te</w>
sou tien</w>
sou f
sou ci
sorti e</w>
soldi ers</w>
sold ats</w>
soi xante</w>
soi rée</w>
so yons</w>
so c
soc cer</w>
sm ells</w>
sm aller</w>
slee py</w>
sk ir
sk in</w>
sin ging</w>
silen cieux</w>
signifi e</w>
si enne</w>
she ep</w>
sh ut</w>
sh ed</w>
sh are</w>
seu ls</w>
serv i</w>
ser ve</w>
senti r</w>
sent i</w>
se l</w>
se cr
se aux</w>
se as
scientifi c</w>
sci ence</w>
sau v
satis fait</w>
sal t</w>
sal aire</w>
sai sir</w>
sa le</w>
s si
s no
s mile</w>
s low
s even</w>
s cre
s che
sche du
s avons</w>
s at</w>
s ant</w>
résul tats</w>
répon du</w>
réfléch i</w>
ré solu</w>
ré gu
ré g
ré es</w>
ré ellement</w>
ré du
rum eur</w>
ro se</w>
ri se</w>
ri d</w>
ri ches</w>
ri ce</w>
reu r</w>
resul ts</w>
rest ée</w>
ress ources</w>
respec ter</w>
res ted</w>
rencontr és</w>
remer cier</w>
rem ède</w>
rejo indre</w>
refu se</w>
recogni ze</w>
re turned</w>
re tour</w>
re tar
re pai
re comm
rar ely</w>
ra z
ra ce</w>
r ush</w>
r ound</w>
r in
r ay
r av
r ang</w>
r ains</w>
r age</w>
quit té</w>
quel les</w>
qu in
qu ences</w>
pu zz
prê ts</w>
pré venu</w>
prou d</w>
prote ct</w>
propos al</w>
prom ettre</w>
prom esses</w>
prom esse</w>
pro pri
pri ses</w>
preu ve</w>
pres sion</w>
pres ident</w>
pr ouv
pour riez</w>
possibili té</w>
pos é</w>
pos ter</w>
port ée</w>
popul aires</w>
popul aire</w>
pon d</w>
poli c
polic eman</w>
po t
po e
po che</w>
pleu v
play ers</w>
pl u</w>
pl ait</w>
pi que</w>
pi gg
pigg y</w>
pi geons</w>
physi cal</w>
peu ple</w>
peti ts</w>
per anto</w>
pe ci
pay ing</w>
pas se
par la</w>
par ked</w>
par ie</w>
par fait</w>
pap a</w>
pain ting</w>
p ushed</w>
p are</w>
p ag
p ack</w>
ow es</w>
ouv rit</w>
oun ded</w>
oun ce</w>
ou rite</w>
ordin aire</w>
or ge</w>
or anges</w>
opportun ity</w>
on ique</w>
om i</w>
om en</w>
ois eau</w>
of fer</w>
occup és</w>
objecti f</w>
obje ctive</w>
o re
non sense</w>
ni veau</w>
ni que</w>
neu f</w>
ner veux</w>
neigh b
n one</w>
n itu
n aiss
n a</w>
n a
métr o</w>
mé d
mon tr
mon ie</w>
mo od</w>
mign onne</w>
mi en</w>
meu bles</w>
met tez</w>
men songe</w>
mea l</w>
me an
mati ère</w>
mathé matiques</w>
mat h</w>
mat ch</w>
mari és</w>
mar teau</w>
mar r
mach ine</w>
m ét
m om</w>
m ad</w>
lé g
lon gues</w>
lon ely</w>
lo g
lo cal</w>
list ened</w>
lic ation</w>
li n</w>
li gn
li ed</w>
li ber
let tres</w>
lear ly</w>
le quel</w>
laiss ez</w>
l ines</w>
l and
l aisse</w>
kin dness</w>
ju m
jam be</w>
ir a</w>
inven tion</w>
inter est</w>
inter dit</w>
indi quer</w>
in ées</w>
in ée</w>
in te</w>
in sist
in for
in dé
in du
impro ve</w>
impressi onn
import ante</w>
im patient</w>
il lu
ig ne</w>
id ence</w>
i ce</w>
i can</w>
héro s</w>
hâ te</w>
hu mili
hu ge</w>
ho li
ho le</w>
hi ding</w>
hel ps</w>
hau sted</w>
har der</w>
happen s</w>
ham mer</w>
h i</w>
génér ation</w>
gu ide</w>
gu ard</w>
grand s</w>
gr é</w>
gr am
go ods</w>
go ld</w>
go l
gi ving</w>
gener ation</w>
ge a</w>
g éri
g ri
g née</w>
g ath
fu tur</w>
fu me</w>
froi de</w>
friend ly</w>
fr ais</w>
fou le</w>
fore ver</w>
for te</w>
for give</w>
fon d
fon ctionn
fon cti
foncti onne</w>
fol lowed</w>
fo ol</w>
fo lle</w>
fo i</w>
flow er</w>
fir m</w>
fin ite</w>
fi é</w>
fi red</w>
fer mé</w>
fer me</w>
fer iez</w>
fav ourite</w>
faul t</w>
fall ing</w>
fai ts</w>
f élic
f us</w>
f us
f ro
f ant
expl oi
exc ited</w>
ex tr
ex hausted</w>
ex am</w>
ev ine</w>
ev idence</w>
ev e</w>
eur re</w>
et é</w>
ess enti
espér anto</w>
escap e</w>
er ia</w>
envoy er</w>
en fu
em p
ele cted</w>
ei gh
earthqu ake</w>
e di
e conom
détru it</w>
dér ange</w>
déci der</w>
dé çu</w>
dé cé
du ring</w>
du m
dro p</w>
drin ks</w>
donn ez</w>
do wn
do s</w>
do ors</w>
dist in
dis gu
différen ce</w>
difficul ty</w>
di se</w>
di ri
di rait</w>
di rai</w>
di g
di es</w>
di a</w>
determin ed</w>
dess ert</w>
deser ve</w>
des k</w>
des cri
der s</w>
der ing</w>
den y</w>
den i
deli cious</w>
deci de</w>
d èle</w>
d us</w>
d ouleur</w>
d ez</w>
d ence</w>
d ata</w>
d anced</w>
croi ent</w>
cri se</w>
cre ate</w>
cr av
crav ate</w>
coû ts</w>
coup é</w>
cou teau</w>
correspon d
cor de</w>
convin ced</w>
contr act</w>
cont act</w>
conse illé</w>
connaiss ait</w>
conn aisse</w>
condu it</w>
condu is
con trol</w>
con stitu
comp ter</w>
comman de</w>
co t
co pain</w>
co lor</w>
co chon</w>
clu b</w>
cli m
cl ever</w>
cl airement</w>
cl air</w>
ck po
cin em
chocol ate</w>
chocol at</w>
chi cken</w>
chev al</w>
chau de</w>
chang ing</w>
chang es</w>
cham p</w>
chall en
ch al
ch a</w>
cer em
cep tion</w>
cele br
cel les</w>
caus ed</w>
car tes</w>
car e
car ds</w>
car act
cand y</w>
cam pagne</w>
cam era</w>
call ing</w>
c élèbre</w>
c ée</w>
c é</w>
c ting</w>
c king</w>
c ité</w>
c at
c ally</w>
buil t</w>
bu g</w>
bro thers</w>
br as</w>
bon heur</w>
bo ss</w>
ble u</w>
bl ement</w>
bl ame</w>
bir d</w>
bicycl ette</w>
bi te</w>
bi en
believ ed</w>
bed room</w>
be ef</w>
bas eball</w>
ban des</w>
ba se</w>
b one</w>
b is
b eurre</w>
b ear</w>
b ank</w>
b all
b ad
b ack
avoc at</w>
aver age</w>
av i
av aient</w>
av ai
aug men
au tumn</w>
au rai</w>
att endu</w>
ati f</w>
ath y</w>
as sure</w>
as i
arti fi
arrê t</w>
arriv ent</w>
ar rested</w>
ar gu
ar d
appoin tment</w>
appel l
ap er
any where</w>
and s</w>
an ne</w>
an ch
amus er</w>
amus ant</w>
ambi tion</w>
am bul
am az
altern ative</w>
alim ents</w>
al liez</w>
ak en</w>
ag res
ad verti
ad or
acti ve</w>
ach ed</w>
ac un</w>
ac ide</w>
absolu tely</w>
absolu ment</w>
abo ve</w>
ab ly</w>
a x
a head</w>
Y u
Y esterday</w>
Wi thout</w>
W omen</w>
Vou driez</w>
V u</w>
V oy
Uni on</w>
T es</w>
Some times</w>
So leil</w>
Sal ut</w>
S or
S eu
S el
S ach
S M
Re garde</w>
Qui conque</w>
Quel s</w>
Qu oi</w>
Pri ces</w>
P ère</w>
P eu</w>
On ly</w>
O f</w>
N ever</w>
Mon trez</w>
Mal heureusement</w>
M is
M an</w>
M ag
Li fe</w>
Lang u
Ital y</w>
Ital ie</w>
H o
H i</w>
H ar
H a</w>
Fr anç
F or</w>
F in
F a
Euro pe
Es peranto</w>
E ss
Do is</w>
Dispos ez</w>
D ur
D evine</w>
Con si
Com m
C ol
C ar
Bri tish</w>
Be au
B ring</w>
B raz
B on</w>
B ar
An ne</w>
Al ger
A c
œu rs</w>
û mes</w>
ô me</w>
î mes</w>
ê t</w>
étudi ante</w>
étu de</w>
éti t</w>
ét aire</w>
ét ab
ép in
én om
énom ène</w>
égo ï
économ ie</w>
écl ata</w>
é ro
éro port</w>
é po
épo que</w>
é or
é car
é an</w>
è n
â me</w>
â ché</w>
É cou
z one</w>
yth ag
youn ger</w>
y p
y g
y es</w>
y ed</w>
xi ème</w>
x ty</w>
x im
wonder ing</w>
wo od</w>
win ning</w>
wi de</w>
wh ale</w>
wer ed</w>
weir d</w>
wea k</w>
we e</w>
we al
was hing</w>
was hed</w>
w ned</w>
w it
w is
w im
w il
w ers</w>
véri table</w>
vou liez</w>
vol é</w>
vol ant</w>
voi x</w>
voi ce</w>
vo te</w>
vo leur</w>
vin cible</w>
vi enne</w>
vi cti
veu illes</w>
ver rou
ven iez</w>
veget ables</w>
vali d</w>
v illes</w>
v ely</w>
v ain</w>
v ague</w>
utilis é</w>
un less</w>
ug ly</w>
u ko</w>
té nu
tw enty</w>
tt les</w>
tt ing</w>
tru c</w>
trouver as</w>
trouv ent</w>
trouv ait</w>
trou bles</w>
tri ste</w>
tri ce</w>
traver ser</w>
transl ations</w>
trai ter</w>
trai te</w>
tradu ire</w>
tradu ctions</w>
tradu ction</w>
tr oisi
troisi ème</w>
tou ché</w>
ton gue</w>
tom be</w>
ti m
ti ll
ti ez</w>
thous and</w>
thi ck</w>
ther mo
them ati
themati cs</w>
th ro
terri blement</w>
ter ms</w>
tend ance</w>
ten té</w>
ten te</w>
ten ait</w>
tem per
temper ature</w>
tea ching</w>
tax es</w>
tai l</w>
tab les</w>
t èrent</w>
t te</w>
t oit</w>
t le</w>
t eurs</w>
t as
t ary</w>
t ante</w>
t anni
sû rement</w>
séri eusement</w>
séri e</w>
sé ché</w>
symbo l</w>
sy st
syst ème</w>
suspi ci
sur face</w>
sup porter</w>
sup pli
sun ny</w>
sun der
suiv ant</w>
sui cide</w>
sugg ère</w>
sugg est</w>
suf fer
str eng
str ai
stori es</w>
st er</w>
st ep</w>
st ea
st aying</w>
ss age</w>
squirre ls</w>
spé ci
spor ts</w>
spo t</w>
spe cial</w>
sp read</w>
sp ell</w>
sp ati
soul ag
sou rire</w>
sou ri
sou d
son gs</w>
som bre</w>
sol ved</w>
sof a</w>
soci ety</w>
soci al</w>
so r</w>
so ft</w>
slow ly</w>
sli pped</w>
skir t</w>
silen ci
si xty</w>
si gn
si eur</w>
sho wed</w>
sh el
shel f</w>
sex u
servi ces</w>
ser ver</w>
ser t</w>
senti ment</w>
sensi tive</w>
sen sé</w>
sen sible</w>
sembl ant</w>
sembl ait</w>
sel y</w>
sel ling</w>
sel fish</w>
secon de</w>
secon d
se x</w>
se ar
scientifi ques</w>
sci ences</w>
schedu le</w>
sav ed</w>
sau ver</w>
sal on</w>
sal ade</w>
sal ad</w>
sac rifi
sacrifi ces</w>
sa ka</w>
s y</w>
s et
s cr
s col
s am
s ain</w>
s ain
s ad</w>
s Ap
sAp p</w>
rê v
rési l</w>
répon ds</w>
réalis er</w>
ré col
ré alité</w>
rus se</w>
ru mor</w>
ru le</w>
ru ined</w>
ro bo
robo t</w>
rist es</w>
ris ques</w>
ris que</w>
ris k</w>
ri z</w>
ri que</w>
ri o
ri n</w>
ri ghts</w>
ri d
rid eau</w>
ri c</w>
requ est</w>
repai red</w>
rem pl
rem ettre</w>
religi on</w>
rel ated</w>
reconnaiss ante</w>
re présent
re pe
re moved</w>
re mind</w>
re la
re cev
re ached</w>
rap ide</w>
rais ed</w>
racon ter</w>
r ation</w>
r ati
r are</w>
r app
r ank</w>
r .</w>
quin ze</w>
qu eue</w>
pê che</w>
pén étr
pé enne</w>
pun ished</w>
pun i</w>
puiss ance</w>
publi que</w>
pu re</w>
pu r
psy chi
préfér erais</w>
pré vu</w>
pré occup
pré cis
pruden te</w>
pru dent</w>
proté ger</w>
proper ly</w>
pronon cer</w>
promis ed</w>
prom ets</w>
prof onde</w>
prof it</w>
produ its</w>
priv é</w>
prin cesse</w>
prin cess</w>
pri son
pres sure</w>
pres sions</w>
prend ra</w>
pre gn
pr of</w>
pr en
pour vu</w>
pot ato
potato es</w>
post card</w>
possibili ty</w>
poss ède</w>
pos tale</w>
ponctu el</w>
politi cal</w>
poli te</w>
pol lution</w>
poin ts</w>
poe m</w>
po ème</w>
pleu re</w>
plea sure</w>
plan ning</w>
plan e</w>
plais ante</w>
piè ces</w>
pic ni
picni c</w>
pi er</w>
pi e</w>
physi que</w>
philoso p
philosop hi
philosophi e</w>
ph énomène</w>
ph y</w>
ph en
phen om
phenom en
phenomen on</w>
ph arm
pharm ac
per spe
per mit</w>
per mettre</w>
per due</w>
pens ent</w>
pen c
pein ture</w>
peci ally</w>
pe int</w>
passe port</w>
pass word</w>
pass port</w>
pass age</w>
parti cu
parti cip
part ment</w>
paro le</w>
par s</w>
par mi</w>
par fai
parfai tement</w>
pain t</w>
p tion</w>
p it
p et</w>
p eau</w>
p ants</w>
p acked</w>
p acifi
ouv ons</w>
ou se</w>
ou l</w>
or dres</w>
or dre</w>
open ing</w>
on z
om orrow</w>
om b</w>
ol d
ok oh
okoh ama</w>
oi seaux</w>
oi se</w>
oi res</w>
oc éan</w>
obje ct</w>
ob jets</w>
o te</w>
o lution</w>
no yé</w>
no se</w>
no ise</w>
no i
ni er</w>
neighb ors</w>
nature l</w>
naiss ance</w>
nag e
n ôtre</w>
n t</w>
n ami
mê mes</w>
mét éor
méri te</w>
médi cam
mé m
mém oire</w>
musici en</w>
musici an</w>
musi cal</w>
mul ti
moy enne</w>
mor gue</w>
mign ons</w>
mi sunder
mi ddle</w>
mi cros
micros co
microsco pe</w>
menti r</w>
ment i</w>
men er</w>
me cs</w>
mauv aises</w>
mati que</w>
mat ure</w>
mat ins</w>
marr on</w>
mar k
mai ne</w>
mai ent</w>
magaz ines</w>
mag nifi
ma î
ma thematics</w>
ma jo
majo ri
m ouv
m ez</w>
m ess</w>
m ement</w>
m ed</w>
m ay
m ar</w>
légu mes</w>
ly cée</w>
lu re</w>
lon gs</w>
lo y
lo ver</w>
lo sing</w>
lo ge</w>
lo cked</w>
ll esse</w>
lign es</w>
li on</w>
li ghts</w>
li en</w>
li c</w>
li bat
libat aire</w>
les quelles</w>
leg al</w>
le ction</w>
l âche</w>
l ying</w>
l ess
l ent
lent ement</w>
l ay</w>
l an
l aid</w>
l ad
l able</w>
l ab
kni ves</w>
kil om
kee ping</w>
k ar
k ag
ju ry</w>
ju dge</w>
jou ent</w>
jo y</w>
jo li</w>
je ans</w>
je al
jeal ous</w>
j oie</w>
j al
is tr
is m</w>
invit és</w>
invit ées</w>
introdu ced</w>
introdu ce</w>
inter rom
inter net</w>
intelli gence</w>
intelli gen
intelligen te</w>
int ended</w>
ingéni eurs</w>
indu stri
in vincible</w>
in v
in surance</w>
in f
in e
in de
in con
impli qué</w>
imp act</w>
im patience</w>
im mor
ill ness</w>
ill ard</w>
il ls</w>
il ed</w>
ignor ance</w>
identi al</w>
i zed</w>
i tive</w>
i ci
hu man
hu maine</w>
hor se</w>
hor reur</w>
holi day</w>
ho pin</w>
ho o
ho l</w>
ho b
hob by</w>
high ly</w>
high er</w>
heure uses</w>
heu r
her o</w>
head ache</w>
he at</w>
happ iness</w>
hang ing</w>
habitu é</w>
h es</w>
h en
h ell</w>
h ad
had n</w>
génér alement</w>
génér al</w>
géni e</w>
guit are</w>
guit ar</w>
guil ty</w>
gu im
gu es
gues ts</w>
gu er</w>
grou p</w>
gre w</w>
gre en</w>
gratu l
gram me</w>
go d</w>
gi ant</w>
gho sts</w>
genti llesse</w>
gen oux</w>
gen cy</w>
gath ered</w>
gard ez</w>
g ér
g ress
g orge</w>
g onna</w>
g no
g ement</w>
g as
gas p
g al
fu cking</w>
fron ti
fr es
fore ign</w>
forc é</w>
for êt</w>
for gotten</w>
for cer</w>
fon d</w>
fo ot</w>
fo lie</w>
fl at</w>
fin ir</w>
fin an
fil ms</w>
fi le</w>
fi er</w>
fi dèle</w>
fi cation</w>
ff re</w>
ff le</w>
ff el</w>
fer ence</w>
fe ed</w>
fe ctionn
fav orable</w>
fau tes</w>
fant ômes</w>
fall en</w>
fall ait</w>
fai th</w>
fai sais</w>
fai lure</w>
fai ble</w>
f ous</w>
f lies</w>
f leur</w>
f aux</w>
f ab
explo sion</w>
expli qu
exerci ce</w>
exam in
exac t</w>
ex pri
ex em
every where</w>
ev olution</w>
ev il</w>
eu xième</w>
ess ed</w>
es ty</w>
es pecially</w>
es ome</w>
er ont</w>
er ons</w>
er o
er i
er as</w>
equ al</w>
envir onnement</w>
envir on</w>
envir on
entr é</w>
enti ssage</w>
enti re</w>
enti er</w>
ent ez</w>
ent ation</w>
ense igner</w>
ennu y
enn ad</w>
enf in</w>
endor mi</w>
end ur
end om
end ant</w>
en y</w>
en tered</w>
en ten
en courag
emprun ter</w>
emp ty</w>
em pêché</w>
em er
eg g</w>
effe ct</w>
ef fort</w>
econom y</w>
e ply</w>
e ine</w>
e ille</w>
e du
e ats</w>
dét e
dé mé
dé goû
dy nami
du rant</w>
dra w</w>
dr y</w>
doub ts</w>
dou é</w>
dou te</w>
dor m
donn ées</w>
donn ent</w>
do cu
dispos es</w>
dish es</w>
dis count</w>
dire cteur</w>
différen ts</w>
différen ces</w>
diffi c
di ses</w>
di ra</w>
di al
dial e
di agno
di able</w>
deven us</w>
dev raient</w>
dev ait</w>
dess inées</w>
des pi
deni ed</w>
den ly</w>
de par
de eply</w>
de cl
de bout</w>
de b
daugh ters</w>
d euxième</w>
d denly</w>
d ating</w>
d ai
cé libataire</w>
cur tain</w>
cul tures</w>
cul ation</w>
crow d</w>
cros sed</w>
cri tique</w>
cri t</w>
cri sis</w>
cre ated</w>
cr ush</w>
cr ay
cr ain
cr ai
cr af
coû té</w>
couver ture</w>
cour amment</w>
coup able</w>
cou teaux</w>
cou per</w>
corre cte</w>
convain c
contribu tor</w>
contribu teur</w>
contr ôle</w>
constitu ent</w>
connaiss ance</w>
conn ais
connais sais</w>
conf érence</w>
conclu sions</w>
concer ned</w>
concentr er</w>
con su
con spi
con som
con serv
con gé</w>
con fectionn
comport ement</w>
compl et</w>
comp lic
comm un</w>
comm itted</w>
com porte</w>
com par
com ic</w>
col li
col lec
co ward</w>
co hol</w>
cit oy
cir culation</w>
cir cu
cir const
cinem a</w>
ci tiz
ci ation</w>
chin ois</w>
che ese</w>
chaus s
chau ff
char ged</w>
char ac
chant euse</w>
chant eur</w>
chanc euse</w>
chal eur</w>
ch ée</w>
ch ans
chans ons</w>
ch air</w>
cert ainement</w>
cerem ony</w>
cen tu
cen sé</w>
ce ful</w>
ce an</w>
caus é</w>
caract ère</w>
capit aine</w>
cap tain</w>
can ap
canap é</w>
cal m</w>
c ouleur</w>
c learly</w>
c it</w>
c ing</w>
c ath
c arrière</w>
c ale</w>
but ter</w>
bur ned</w>
bu tton</w>
brû lé</w>
bru it</w>
brill ante</w>
bre ath</w>
br ain</w>
bou ton</w>
bor ro
bor ing</w>
bor del</w>
boo k
bo ttles</w>
bo red</w>
bo ard</w>
bless ée</w>
bless er</w>
bl onde</w>
bl ind</w>
bl es
bis cu
bill ets</w>
bill et</w>
bi o
bi le</w>
bi g
believ es</w>
beli ef</w>
beg in</w>
beau té</w>
be tr
be have</w>
be cue</w>
be coming</w>
be ating</w>
be at</w>
bar becue</w>
ban que</w>
bal eine</w>
bad ly</w>
b œuf</w>
b én
b i</w>
b an</w>
az ak
ay ant</w>
aw esome</w>
avai lable</w>
av ions</w>
av ion</w>
augmen té</w>
au té</w>
au to
au teur</w>
atti tude</w>
attend ais</w>
atte int</w>
atte indre</w>
att aqu
att acked</w>
ath le
at é</w>
at sApp</w>
at om
assu me</w>
ass é</w>
ass is</w>
ass em
as t
as surance</w>
arrê te</w>
arrog ance</w>
ar ms</w>
appr entissage</w>
appr end</w>
appel ée</w>
appear ance</w>
app étit</w>
ap pl
ap ed</w>
ant ly</w>
annu l
ank ly</w>
and ra</w>
anch ement</w>
anc s</w>
anak a</w>
an ta</w>
an ed</w>
ami cal</w>
ambul ance</w>
am ong</w>
am ent</w>
alph ab
alphab et</w>
all er
alis m</w>
ali en</w>
ali bi</w>
al o
al cohol</w>
ais é</w>
air port</w>
aimer ait</w>
aim ée</w>
aim ez</w>
agres si
aggres sive</w>
ag on
ag ir</w>
af ford</w>
adv antage</w>
ado p
ado les
ad d</w>
accor ding</w>
accep table</w>
ac é</w>
ac compli
ac a
abor d</w>
abili té</w>
abili ty</w>
aband onner</w>
ab y
ab sor
ab oie</w>
a. m</w>
a éroport</w>
a king</w>
a k</w>
You Tu
Y okohama</w>
Whi te</w>
Whi le</w>
Wh atsApp</w>
W ith</w>
W as</w>
W ar</w>
Voi là</w>
Vo is</w>
US B</w>
Tur n</w>
Tr av
Th anks</w>
T ro
T ony</w>
T omorrow</w>
T hou
T e</w>
T anaka</w>
T a</w>
St ay</w>
Spea king</w>
Sel on</w>
SM S</w>
S mo
S ais</w>
Russi an</w>
Re gardez</w>
R oy
R em
R I
Quel que</w>
Qu elles</w>
Prom ise</w>
Prom ettez</w>
Pres ident</w>
Par ler</w>
P ythag
P o
P eter</w>
P asse</w>
P ar</w>
O saka</w>
O b
N u
N ouv
N or
N one</w>
N a
Mi ke</w>
May uko</w>
Mar s</w>
Mar ia</w>
M y
M il
M ennad</w>
M ac
Lon dres</w>
Lon don</w>
Le quel</w>
Langu age</w>
L ast</w>
K o
K ing</w>
K en</w>
Jou ons</w>
Je an</w>
J ones</w>
J im
J av
J aponais</w>
J ack
Is ra
In dia</w>
In de</w>
I to</w>
Hel en</w>
H urry</w>
H it
H en
Gu ess</w>
Gre en</w>
G rand
G ir
Fa ther</w>
F u
F ew</w>
F er
Europe an</w>
Ei ffel</w>
D u
D emain</w>
Conn ais</w>
Con tin
Co ws</w>
Christ op
Char les</w>
Ch ri
Ch ine</w>
Ch ina</w>
Can adi
C re
C hopin</w>
C hi
C eux</w>
C ap
Braz il</w>
Beau coup</w>
B ut</w>
B résil</w>
B ro
B ir
At tention</w>
Arrê te</w>
App elle</w>
Ap par
Améric ains</w>
Amer ican</w>
All ons</w>
Al ors</w>
A tt
A tom
A m
A kag
A i</w>
A fri
6 0</w>
4 0</w>
20 0
19 1
1 8
1 5</w>
1 50</w>
1 0
œu vre</w>
ô ne</w>
ï ne</w>
ê mement</w>
étudi é</w>
étudi ent</w>
étu des</w>
étrang ers</w>
éti tion</w>
éte indre</w>
ét end</w>
ét end
ét ag
étag ère</w>
éri c
ér ature</w>
ér ance</w>
épuis é</w>
épous é</w>
ép ais</w>
élè ve</w>
élev és</w>
élec tri
élec tr
électr onique</w>
él oi
égoï ste</w>
ég ard</w>
ég age</w>
écou té</w>
échou é</w>
é volution</w>
é prou
éprou ve</w>
é ment</w>
é du
é cris</w>
é che
éche cs</w>
è tres</w>
è tre</w>
É g
yp ti
your selves</w>
y side</w>
y el
wri ter</w>
wor n</w>
wor kers</w>
wis dom</w>
whi ch
which ever</w>
whe el</w>
wh om</w>
weal thy</w>
wea pon</w>
we i
wei gh
we b
web site</w>
was ting</w>
war n</w>
war ming</w>
war ds</w>
wal king</w>
w re
w ol
w o</w>
w le
w ind</w>
w arri
warri or</w>
vé cut</w>
voul ut</w>
voul aient</w>
vou driez</w>
volunte ered</w>
volon taire</w>
volon tai
vo lu
vo ler</w>
vo l</w>
viv ait</w>
vit é</w>
vit esse</w>
vit al</w>
vict ory</w>
vict oire</w>
vi sible</w>
vi ously</w>
vi ez</w>
vi ande</w>
veu illez</w>
ver ty</w>
ver sity</w>
ver sion</w>
ver res</w>
ven ues</w>
ven ted</w>
ven ons</w>
ven ge</w>
ven ge
venge ance</w>
velop pé</w>
val eur</w>
v as
v ari
v alis
v aiss
v able</w>
utilis ez</w>
uti lise</w>
uti les</w>
ur gent</w>
under standing</w>
un s</w>
un known</w>
un es</w>
un dance</w>
u res</w>
u le</w>
télé phones</w>
té m
tém oin</w>
tw el
tu t</w>
tu g
tu e</w>
tu ally</w>
tt a</w>
tru sted</w>
trouver ez</w>
trom per</w>
tro le</w>
tri bun
tribun al</w>
trembl ement</w>
tre at</w>
travaill ons</w>
travaill ais</w>
travai lles</w>
trav eling</w>
trans por
tr é
tr yside</w>
tr unk</w>
tr ou</w>
tr apped</w>
tr ac
tour ner</w>
tou ristes</w>
tou ri
tor ture</w>
tomb a</w>
tom a
toi let
to x
to ward</w>
to oth
tin y</w>
timi d</w>
ti tre</w>
ti ous</w>
ti onné</w>
ti oned</w>
ti ger</w>
ti g
ti er</w>
ti ens</w>
ti endra</w>
ti ckets</w>
thir d</w>
thi ef</w>
ther n</w>
them selves</w>
th under</w>
th r
th ough</w>
th ful</w>
th anks</w>
tex te</w>
tex t
termin er</w>
ter y</w>
ter mine</w>
ter me</w>
ter m</w>
ter ing</w>
ten tation</w>
ten ez</w>
temp ête</w>
temp érature</w>
techno logi
tea chers</w>
te en
tat ou
tar te</w>
tar get</w>
tal on</w>
tab li
tabli shed</w>
t tes</w>
t les</w>
t i</w>
t ext</w>
t ear</w>
t ches</w>
t au
tau ght</w>
t at</w>
t as</w>
t ap
tap is</w>
t and
tand is</w>
t an
t all
tall est</w>
t age</w>
sû rs</w>
sû res</w>
sév érance</w>
séri euse</w>
sé quences</w>
sé jour
symbo le</w>
swe et</w>
swe at
sw ear</w>
suspe cte</w>
surviv ors</w>
surviv ants</w>
sur vive</w>
sur veill
sur er</w>
suppos és</w>
suppor ted</w>
supplément aire</w>
super market</w>
super marché</w>
sugg es
sub way</w>
su y
su ddenly</w>
su dden</w>
su d</w>
sty le</w>
stupi des</w>
stu ff</w>
stu dies</w>
stu died</w>
streng th</w>
stre ets</w>
strai ght</w>
str on
stron ger</w>
str anger</w>
str ang
strang ers</w>
sto ok</w>
sto l
stol en</w>
sto ck</w>
sti ck</w>
stea k</w>
ste pped</w>
stat us</w>
st re</w>
st or
stor m</w>
st one</w>
ss ée</w>
spi der</w>
spe ci
spati al</w>
sp ends</w>
sp ending</w>
souhai tez</w>
souhai ter</w>
souci e</w>
sou tenu</w>
sou p
sou ffle</w>
sou cier</w>
sort ons</w>
sort is</w>
sort i</w>
some body</w>
soli d</w>
sol aire</w>
sm iling</w>
sm ell</w>
sli p</w>
sk in
skin ny</w>
siè ge</w>
siè cles</w>
siè cle</w>
situ e</w>
sist ers</w>
sist ance</w>
sin gu
silenci euse</w>
sil ly</w>
signifi cation</w>
sibili ty</w>
si ère</w>
si us</w>
si tting</w>
si este</w>
si e</w>
shor ter</w>
sho pping</w>
sho ck</w>
sh oul
sh ou
sh ine</w>
sh aking</w>
servi ettes</w>
seri es</w>
ser s</w>
ser ré</w>
ser ons</w>
ser iez</w>
sent ez</w>
sent ait</w>
sembl ent</w>
sem ents</w>
se curi
securi ty</w>
se ction</w>
se cours</w>
scienti sts</w>
scho lar</w>
scar y</w>
sc ène</w>
sav ing</w>
sau ter</w>
sal ary</w>
s œurs</w>
s ée</w>
s u</w>
s ses</w>
s prin
s our</w>
s lav
s l
s ents</w>
s ence</w>
s en</w>
s cul
s cis
scis sors</w>
s ave</w>
s ag
sag esse</w>
s aches</w>
rê ves</w>
rê ve</w>
réus si
rési denti
rép étition</w>
rép are</w>
régu lièrement</w>
récol te</w>
ré vé
ré veille</w>
ré sistance</w>
ré pu
ré monie</w>
ré gi
ré fu
ré di
ré con
ré cl
récl am
ru p
ru es</w>
rou ve</w>
ro y
ro pe</w>
ro of</w>
ro le</w>
ro i</w>
ro cks</w>
ridicu lis
ri l</w>
ri go
ri es</w>
ri el</w>
ri e</w>
ri ch
retour n
resul t</w>
respons abilité</w>
respon sibility</w>
respon d</w>
respe ct
res tez</w>
res tes</w>
res ources</w>
res our
res ist</w>
res ist
resist ance</w>
res cu
rescu ed</w>
requi res</w>
repe at</w>
rentr ée</w>
rentr é</w>
ren voy
ren om
rempl i</w>
rem ained</w>
rem ain</w>
rela x
regre tte</w>
regre tt
regard ant</w>
regar da</w>
refus é</w>
recomm end</w>
reali zed</w>
read s</w>
re ç
re viendra</w>
re té</w>
re trouvé</w>
re pro
re prendre</w>
re passer</w>
re pair</w>
re monter</w>
re mise</w>
re jet
re gu
regu lar
regular ly</w>
re gi
re du
re ct</w>
re conn
re command
re ality</w>
rav i</w>
rapp elles</w>
ram assé</w>
rais ins</w>
rain ed</w>
rai ment</w>
ra w</w>
r ying</w>
r ty</w>
r erais</w>
r ange</w>
r ang
quotidi enne</w>
quotidi en</w>
quit te</w>
qui conque</w>
quar ante</w>
qu asi
quasi ment</w>
qu arti
quarti er</w>
qu anti
qu ali
q u</w>
péri ode</w>
péri l</w>
pénétr er</w>
pé trole</w>
puzz le</w>
puis siez</w>
publi é</w>
publi cité</w>
pu r</w>
pu ll</w>
psychi c</w>
présen té</w>
présen te</w>
préf ères</w>
préci pit
préci eux</w>
pré voyez</w>
pré vois</w>
pré visions</w>
pré venue</w>
pré hen
pru dents</w>
propos es</w>
propos ed</w>
promen er</w>
promen ade</w>
prom is</w>
profession nel</w>
profession al</w>
profes sor</w>
produ cts</w>
produ ct</w>
probab ili
pro vi
pro ve</w>
pro per</w>
pro jets</w>
pro gress
pro gramme</w>
priv ate</w>
pri ved</w>
pri ori
pri mé</w>
pri l</w>
preu ves</w>
pres se</w>
pres er
prend rais</w>
premi ers</w>
pregn ant</w>
pre vented</w>
pre pare</w>
pre di
pre cious</w>
prati quement</w>
prati que</w>
practi cal</w>
pr enez</w>
pr ais
prais ed</w>
pouv aient</w>
pous sé</w>
pous ser</w>
pous se</w>
pou red</w>
pou p
post po
postpo ne</w>
port ez</w>
por terai</w>
pon du</w>
politi ci
po ète</w>
po verty</w>
po ni
po ig
poig née</w>
po et</w>
po ems</w>
pleu rait</w>
pleas ant</w>
ple ine</w>
plan ation</w>
plain tes</w>
plac é</w>
pl om
pl ain</w>
pl af
plaf ond</w>
pil ls</w>
pic ked</w>
pi rer</w>
pi ckpo
pi ck</w>
pi cal</w>
pi c</w>
philoso phy</w>
peti tion</w>
persu ader</w>
persu ade</w>
perspe ctive</w>
person nel</w>
pers ever
persever ance</w>
perfe ctly</w>
per sévérance</w>
per man
per haps</w>
per d</w>
pens ées</w>
pens ait</w>
pend ent</w>
pend ante</w>
penc il</w>
pe anu
peanu ts</w>
pauv reté</w>
pauv res</w>
pati ents</w>
pass ez</w>
pass a</w>
particu lièrement</w>
parti ra</w>
part is</w>
par te</w>
par liez</w>
par ess
par eil</w>
par donn
pan talon</w>
pain ful</w>
p èse</w>
p ush</w>
p tions</w>
p ne
pne u</w>
p ath</w>
p al
p a</w>
ouver tes</w>
ouv rez</w>
ouv re</w>
oun d
oubli ez</w>
oubli er</w>
ou tr
ou illes</w>
ou ette</w>
ot tes</w>
origin al</w>
ori es</w>
organ ized</w>
organ is
or ld</w>
or dered</w>
opér ation</w>
opportun ité</w>
opin ions</w>
op pos
op ed</w>
on line</w>
on jour</w>
on gs</w>
on dé
on dance</w>
on aire</w>
om s</w>
ologi ques</w>
oi l</w>
oi gt</w>
offi cer</w>
of fer
od d</w>
od b
odb ye</w>
occu r
oblig ée</w>
oblig ations</w>
obje ction</w>
ob serve</w>
ob s
ob jet</w>
ob iles</w>
o ted</w>
o ke</w>
o gle</w>
o es</w>
o cr
o cean</w>
o bile</w>
nu ts</w>
nu ages</w>
nouv eaux</w>
no tice</w>
no tes</w>
no r</w>
no body</w>
nitu re</w>
ni r</w>
ner ve</w>
necess ar
necessar ily</w>
near ly</w>
near est</w>
ne ig
n és</w>
n it</w>
n av
n ative</w>
n ap</w>
n ant</w>
n aie</w>
météor ologiques</w>
méd aille</w>
mé th
mur mu
multi lin
multilin gu
mouv ement</w>
mour ut</w>
mou th</w>
mor te</w>
montr ent</w>
mondi ale</w>
mondi al</w>
mon naie</w>
moder n</w>
mo teur</w>
mo s
mo quer</w>
misunder standing</w>
mist aken</w>
mis éri
minu it</w>
milli ers</w>
mil es</w>
mi stook</w>
mi rent</w>
mi f
mif ère</w>
mi el</w>
mi e</w>
mi d
merveill eux</w>
mer de</w>
mer cy</w>
mer ci</w>
ment al</w>
mem bre</w>
me th
me d
med al</w>
me chan
me at</w>
me als</w>
maî tri
mat éri
mat inée</w>
mat eri
mas ter</w>
mark eting</w>
mari ée</w>
manu el</w>
manu al</w>
manqu ez</w>
manqu ent</w>
manqu ait</w>
mani pul
mani f
manif es
mang ent</w>
man qué</w>
man ques</w>
man aged</w>
mam mifère</w>
mam mal</w>
maladi es</w>
majori ty</w>
maj or</w>
ma ître</w>
ma ths</w>
m és</w>
m ène</w>
m p</w>
m ember</w>
m ation</w>
m ans</w>
m and
m aisons</w>
lé ger</w>
lum bus</w>
lou d</w>
lon gue</w>
logi que</w>
log ist</w>
lo yer</w>
lo vely</w>
lo ses</w>
lo ck</w>
lo bal</w>
liv er</w>
lis ez</w>
lin k</w>
lic ations</w>
liber té</w>
li tres</w>
li ters</w>
li qui
li king</w>
li gne</w>
li fe
life time</w>
lev el</w>
let ting</w>
lar ger</w>
lap top</w>
lap ins</w>
lang age</w>
lad y</w>
l une</w>
l ente</w>
l au
l atin</w>
l ately</w>
l at
l as
l ack</w>
l abor
labor at
kno wle
kno ck</w>
kis sing</w>
ki es</w>
ki d</w>
k ilo
kilo s</w>
k er
ju re</w>
ju pe</w>
ju ge</w>
ju d
jou eurs</w>
jo ke</w>
jo indre</w>
jo gg
jogg ing</w>
jet er</w>
jet a</w>
jal oux</w>
j i</w>
j ette</w>
j el
j au
j apon
j ail</w>
it ée</w>
it ting</w>
it self</w>
is sait</w>
ir ur
ir on</w>
invit ée</w>
intéress és</w>
inté resse</w>
inté res
internation ale</w>
internation al</w>
intelli g
intellig ents</w>
inspi ration</w>
inform ations</w>
ine ers</w>
indi que</w>
inde pendent</w>
increas ed</w>
in timi
in time</w>
in tend</w>
in san
in k</w>
in fe
in corri
incorri gi
in come</w>
in cid
in cen
in calcul
incalcul able</w>
im pul
im pati
il legal</w>
igno red</w>
ign it</w>
ign ers</w>
idé es</w>
idi ote</w>
i ère</w>
i vre</w>
i ti
i rez</w>
i or</w>
i est</w>
i ch
i cal</w>
héro ïne</w>
hypoth èse</w>
hypoth es
hypothes is</w>
hun g</w>
hu ètes</w>
hu mor</w>
hu mains</w>
hou ses</w>
honn eur</w>
hon ey</w>
ho ping</w>
hist oires</w>
hi stori
heur té</w>
her oin</w>
heav ily</w>
hau te</w>
har v
har i
har d
hand some</w>
hand ed</w>
habitu er</w>
habit ait</w>
hab it</w>
hab ill
h éri
h ates</w>
h ang</w>
h all</w>
h a
géri e</w>
géni es</w>
gé ante</w>
guer rier</w>
gu ère</w>
gu eu
gueu le</w>
gu essed</w>
gro ssi
gratul ations</w>
grand i</w>
gr âce</w>
gr adu
gol d
go tta</w>
gn ez</w>
gl é</w>
gl ace</w>
gi ft</w>
gh ting</w>
genti lle</w>
geni uses</w>
gar dé</w>
gar des</w>
gar der
garder ai</w>
gal ax
g ê
g ou
g ner</w>
g gl
g ez</w>
g el
g ay</w>
g as</w>
fur ther</w>
fur niture</w>
fu sion</w>
fu el</w>
fronti ère</w>
friend ship</w>
fre e
frapp é</w>
frapp e</w>
frapp a</w>
four nit</w>
form s</w>
fore c
forec ast</w>
for mul
for ces</w>
for bi
forbi dden</w>
fonctionn é</w>
flu ent</w>
fl av
fl as
fin ger</w>
fi ère</w>
fi ghting</w>
fi el
fiel d</w>
fi ca
fica ce</w>
fi able</w>
feu ille</w>
fer ions</w>
feel s</w>
faul ts</w>
fatigu ée</w>
fai thful</w>
fai r</w>
fac ture</w>
fac es</w>
f ûmes</w>
f ê
f âché</w>
f le</w>
f ear</w>
f aus
faus se</w>
f asses</w>
f allu
fallu t</w>
f al
extr êmement</w>
expl ained</w>
exp lication</w>
exig é</w>
exem ple</w>
excus er</w>
examin ation</w>
ex tra</w>
ex pressions</w>
ex press</w>
ex planation</w>
ex pi
ex i
ex empl
ex e</w>
ex cès</w>
ex cuse</w>
ex change</w>
ev enty</w>
ev ents</w>
ev en
ev ed</w>
euro péenne</w>
et eria</w>
esti mat
essay a</w>
ess ez</w>
ess ai
esp èce</w>
esc ali
es tablished</w>
er ror</w>
er o</w>
er ever</w>
environ ment</w>
entre tenir</w>
entr aî
entr ance</w>
entr al</w>
entr a</w>
entr a
entra îner</w>
enti ère</w>
enti rely</w>
enseign é</w>
ennu yeux</w>
enjo ys</w>
engag ement</w>
eng ineers</w>
endom mag
end ure</w>
end ez</w>
end er</w>
enc y</w>
enc ed</w>
en visage</w>
en vis
en vers</w>
en verrai</w>
en va
en us</w>
en té</w>
en ted</w>
en ce
emprun te</w>
employ er</w>
employ ed</w>
em bre</w>
ele ct</w>
ele c
elec tri
el ler</w>
el led</w>
el ez</w>
el er</w>
eigh teen</w>
effray é</w>
effe ctu
effe ctive</w>
ef t</w>
ef ficace</w>
eas ier</w>
ear lier</w>
ea bles</w>
e ût</w>
e ons</w>
e k</w>
e illes</w>
e ding</w>
e d
détermin ation</w>
dési re</w>
déli cieux</w>
déjeu né</w>
déf i</w>
décé dé</w>
découver te</w>
déclar é</w>
dé so
dé s</w>
dé pêché</w>
dé pêcher</w>
dé pourvu</w>
dé pensé</w>
dé passer</w>
dé nu
dé lic
dé gr
dé fil
dé cor
dé con
décon ne</w>
dé barrass
du ty</w>
dro wned</w>
dro ve</w>
dro pped</w>
dri ed</w>
dr ôle</w>
down town</w>
doub t</w>
dou tes</w>
dou c
dor ment</w>
donn ée</w>
dom mage</w>
dom aine</w>
do w</w>
do l
divor ce</w>
dist ant</w>
dispos ent</w>
dispos ais</w>
dispar u</w>
disgu sting</w>
discus sed</w>
discu té</w>
disco vered</w>
dis puter</w>
dis poni
dire ctor</w>
diplom ati
din gue</w>
différen te</w>
difficul té</w>
diffic iles</w>
diff ère</w>
di so
di rty</w>
di rent</w>
di r</w>
di gne</w>
di ez</w>
di eu</w>
deven ue</w>
dev iner</w>
dev ais</w>
determin ation</w>
det e
despi se</w>
deser ves</w>
des tin</w>
des ire</w>
derni ères</w>
depar ture</w>
denti ste</w>
denti st</w>
demand ed</w>
de prived</w>
de finite</w>
de f
de ed</w>
de dans</w>
de cor
dam aged</w>
dai ly</w>
d ors</w>
d oigt</w>
d ear</w>
d an
cé rémonie</w>
curi o
cur ren
cuisin ière</w>
cuisin ier</w>
cu red</w>
cu l</w>
cu e
cré é</w>
cré dit</w>
cros sing</w>
criti ques</w>
crimin al</w>
cre am</w>
cray on</w>
cras hed</w>
craf t</w>
cr ème</w>
cr o</w>
couver t</w>
courag eux</w>
cour te</w>
coup a</w>
coun tryside</w>
cou ps</w>
cou le</w>
cou ché</w>
corre ctly</w>
cor pus</w>
cor ding</w>
cor des</w>
coo kies</w>
convain cu</w>
contr ary</w>
contr ari
contr aire</w>
continu é</w>
continu er</w>
cont ac
constru it</w>
const amment</w>
conse ille</w>
conse illa</w>
consci ent</w>
connaiss ent</w>
conna î
condu ct</w>
concer ne</w>
concer n</w>
concentr ate</w>
con vient</w>
con tient</w>
con séquences</w>
con fir
con cl
concl u</w>
complic ated</w>
compli qué</w>
comple x</w>
complain ts</w>
complain ing</w>
comp ét
comp at
compat is</w>
communi cation</w>
commer ce</w>
comment aires</w>
comment aire</w>
commen ç
comm and</w>
com prennent</w>
com bus
coll ine</w>
coll abor
co vered</w>
co ver</w>
co ts</w>
co ffre</w>
clo sely</w>
cli mat
cli ent</w>
cle aned</w>
cl av
cl asses</w>
cl ari
citoy ens</w>
citiz ens</w>
cis eaux</w>
circu m
circonst ances</w>
ci vi
ci v
ci eusement</w>
choi si</w>
cho sen</w>
cho c</w>
chin oise</w>
cherch ait</w>
cher ches</w>
che er</w>
che ating</w>
chauss ettes</w>
char g
chang ements</w>
cham pagne</w>
cham bres</w>
challen ge</w>
ch â
ch ouette</w>
ch oir</w>
ch irur
ch ess</w>
ch ant</w>
ch aise</w>
ch acun</w>
cert aines</w>
cer veau</w>
centu ry</w>
celebr ate</w>
ce ive</w>
ce iling</w>
cau ses</w>
cass ée</w>
cass er</w>
cas h</w>
care fully</w>
cap ac
cam ion</w>
call s</w>
cal es</w>
caf eteria</w>
cach er</w>
ca b</w>
c oul
c ou</w>
c on</w>
c is</w>
c es
c ently</w>
c emment</w>
c ate</w>
c aca
caca huètes</w>
c a</w>
bén é
bus te</w>
bri tanni
bri o
br onz
br an
br ac
boute illes</w>
bour g</w>
bou tique</w>
bou che</w>
borro wed</w>
bor der</w>
bor d</w>
blo g</w>
blan ket</w>
bl on
bl ing</w>
bl in
biscu its</w>
big ger</w>
ben ef
bel ongs</w>
bel ong</w>
beg ins</w>
beau ty</w>
be hav
be es</w>
be comes</w>
be aten</w>
batt le</w>
bar s</w>
bar ely</w>
bag s</w>
bag ages</w>
bac ks</w>
b û
b ê
b ound</w>
b om
b oivent</w>
b its</w>
b in
b illi
b ers</w>
b ai
av ril</w>
av ou
av ing</w>
av iez</w>
av eu
av ed</w>
av ancé</w>
autori té</w>
autori sé</w>
autom obile</w>
auto ris
auth ority</w>
aus tr
aug ment
au trefois</w>
au rez</w>
au ra</w>
au près</w>
au nt</w>
au di
attrap er</w>
attrap e</w>
atti rer</w>
attaqu és</w>
att ack</w>
atom ique</w>
at e
at ching</w>
assist ant</w>
assi se</w>
ass er</w>
as surer</w>
as sum
as pir
as pe
as n</w>
as ed</w>
arti cles</w>
arrê tée</w>
arrog ants</w>
arro se</w>
arriver ait</w>
arriv és</w>
arriv es</w>
arriv ait</w>
archite cte</w>
archite ct</w>
ar m</w>
ar ai
arai gnée</w>
ar ab
appréci ent</w>
appro ve</w>
appel ons</w>
appear ed</w>
appar u</w>
appar tement</w>
appar ence</w>
app y</w>
app ear</w>
apologi zed</w>
ap prends</w>
ap porter</w>
ap ples</w>
ap petite</w>
anxi ous</w>
ans wered</w>
annul ée</w>
an i
an cho
amélior é</w>
amus ante</w>
ami tié</w>
amaz ing</w>
am éric
am es</w>
am en
am ed</w>
am bo
am b
am ais</w>
altern atives</w>
allu mer</w>
aller gi
all ées</w>
alis me</w>
alis er</w>
alis ation</w>
alent ours</w>
al ty</w>
al ed</w>
aiss er</w>
ain ly</w>
ain ing</w>
aimer ions</w>
aim ons</w>
aim ed</w>
aider a</w>
ai mais</w>
ai maient</w>
ai lles</w>
ai des</w>
ag s</w>
aff li
af fir
adv anced</w>
ador ent</w>
addi tion</w>
addi cted</w>
ad orable</w>
ad mit</w>
ad dressed</w>
ad ded</w>
actu ellement</w>
actu elle</w>
activit é</w>
activit y</w>
ach ète</w>
ach è
accep té</w>
accep ted</w>
ac y</w>
ac ré</w>
ac qu
ac e
absur de</w>
aband onn
ab undance</w>
ab str
ab ondance</w>
ab lement</w>
ab eilles</w>
a x</w>
a partment</w>
a des</w>
YouTu be</w>
Wh atever</w>
W rite</w>
W orld</w>
W ar
Voy ager</w>
V raiment</w>
V oyez</w>
V er
V enus</w>
Uni es</w>
U r
Tr adu
Tou te</w>
To wer</w>
T wo</w>
T enez</w>
Spea k</w>
Some thing</w>
Smo king</w>
Seu l</w>
S un</w>
S tr
S oit</w>
S ois</w>
S it</w>
S a
Roy al</w>
Rem ember</w>
Re petition</w>
Re ally</w>
R ight</w>
R ead</w>
Pu is
Pl us</w>
Per mettez</w>
Per haps</w>
Par donnez</w>
Par ce</w>
P re
P ouvons</w>
P or
P endant</w>
P at
P al
On ce</w>
Nu l</w>
Nouv elle</w>
N e
Mon sieur</w>
Mon ey</w>
Mo st</w>
Mis s</w>
M us
M r.</w>
M ine</w>
M ettez</w>
M en</w>
M e</w>
L à</w>
L ong</w>
L is</w>
L eft</w>
L avez</w>
L atin</w>
L a
Ko be</w>
Jus te</w>
Jus qu&apos;</w>
Je anne</w>
Jack son</w>
J o
J amais</w>
Ital ian</w>
Intern ational</w>
In vite</w>
I gno
I ci</w>
Hel p</w>
H um
H onn
H e
H appy</w>
H al
Go ogle</w>
Go od</w>
G i
Fu mer</w>
Franç ais</w>
Fr ankly</w>
Fr anchement</w>
For get</w>
Fer me</w>
F ear</w>
F e
F aisons</w>
Ei ther</w>
E m
Dé sol
Dé barr
Dur ing</w>
Di able</w>
D égage</w>
D eux</w>
Cro yez</w>
Cro is</w>
Cor ri
Cor rect</w>
Consi der</w>
Conn aissez</w>
Comm un
Col omb</w>
Co lumbus</w>
Chri sti
Ch er
Cert aines</w>
Cel sius</w>
C lose</w>
C he
C essez</w>
C entral</w>
C ath
Bu t
Bro wn</w>
Bo ys</w>
Bir ds</w>
Be cause</w>
B ou
B onjour</w>
B i
B ats</w>
B as
B C</w>
Australi an</w>
Auc une</w>
Atom ic</w>
App elez</w>
Ap portez</w>
Ap porte</w>
Any one</w>
Alger ia</w>
Al gérie</w>
Aim ez</w>
Ac cording</w>
A pril</w>
A ide</w>
4 000</w>
3 00</w>
2 8</w>
2 .
1 00</w>
, 000</w>
û te</w>
ô tres</w>
ô ti</w>
ô ta</w>
ï s
ï e</w>
ï de</w>
î n
în mes</w>
î le</w>
í o</w>
ê t
êt eté</w>
ê pes</w>
ê le</w>
évi dence</w>
év èn
évèn ements</w>
év an
évan ou
étudi a</w>
étrang ères</w>
étab li</w>
ét éri
étéri a</w>
ét y
ét rin</w>
ét ou
étou ff
ét onné</w>
ét of
étof fe</w>
ét ern
ét ari
ét ant</w>
ét an
éri r</w>
éri eur</w>
ér ée</w>
ér u
éru dit</w>
ér i</w>
épin gle</w>
ép reu
épreu ve</w>
ép ais
énor mé
énormé ment</w>
éni g
énig me</w>
éner v
én avant</w>
élic it
élicit ations</w>
élev é</w>
électri cité</w>
ég étari
ég li
ég alité</w>
ég ale</w>
écureu il</w>
écu ter</w>
écri vain</w>
écri rai</w>
écras é</w>
écras er</w>
écou tes</w>
écou te</w>
écou tais</w>
échapp é</w>
é reuse</w>
é pou
é pic
épic é</w>
é pau
é mo
é lé
élé ph
é lu
é lire</w>
é char
échar pe</w>
é change</w>
é chan
échan till
é a</w>
èn ent</w>
è vement</w>
è ve</w>
è rerais</w>
è des</w>
è ches</w>
ç ues</w>
â gé</w>
â g
Écou tez</w>
É tiez</w>
É tant</w>
É tais</w>
É l
Él oi
É cris</w>
É co
Éco s
Écos sais</w>
zar rement</w>
z éro</w>
z ones</w>
z om
z ing</w>
z i
z ero</w>
z en</w>
z art</w>
z aine</w>
ypti an</w>
yg ones</w>
yel low</w>
y u
yu an</w>
y ser</w>
y ou
y m
y ens</w>
y en</w>
y d
yd ne
ydne y</w>
y azak
yazak i</w>
y aux</w>
y ait</w>
y ach
yach ts</w>
xim ité</w>
x yg
x ion</w>
x ford</w>
x em
xem bourg</w>
wre ck</w>
wr in
wrin k
wrink led</w>
wr apped</w>
wol f</w>
wo ol</w>
wo ods</w>
wit ness</w>
wit n
win gs</w>
win ging</w>
win ds</w>
wim ming</w>
wil d
wi dow</w>
wi der</w>
whi sky</w>
wh ites</w>
wh en
when ever</w>
wel d</w>
weigh s</w>
we l</w>
we ig
weig h</w>
we b</w>
wat ch
was ted</w>
war s</w>
wai st</w>
w ton</w>
w ound</w>
w et</w>
w are</w>
w all</w>
vê tement</w>
véri fi
voy ante</w>
voy agent</w>
voy ag
volontai res</w>
vol eurs</w>
vol can
voi es</w>
voi ci</w>
vo que</w>
viv ons</w>
vit re</w>
vit am
visi té</w>
visi tera</w>
visi onn
vir é</w>
vir gin
vir g
virg in</w>
vir er</w>
viol on</w>
viol ent</w>
viol ence</w>
vin t</w>
vin g
vin ce</w>
viend riez</w>
viend rait</w>
vie ws</w>
vie illes</w>
vie illard</w>
vidé os</w>
victi m</w>
vi vions</w>
vi vez</w>
vi ous</w>
vi oli
violi n</w>
vi o
vio let
vi er</w>
vi er
vier ge</w>
vi ennes</w>
vi du</w>
vi c
vic time</w>
veu ve</w>
veu ille</w>
verrou illé</w>
ver sé</w>
ver sité</w>
ver rons</w>
ver ing</w>
ver di
verdi ct</w>
vend ent</w>
ven ts</w>
ven im
ven d</w>
ven ant</w>
vel ous</w>
veill er</w>
veget ari
van ter</w>
valis es</w>
vali se</w>
vali de</w>
val ue</w>
val u
valu able</w>
val able</w>
vaiss elle</w>
vac u
vac ations</w>
va che</w>
v ôtre</w>
v égétari
v y</w>
v ul
vul g
vulg aire</w>
v rez</w>
v res</w>
v il
v este</w>
v ends</w>
v ember</w>
v ated</w>
v ar
v ain
utilis ée</w>
utilis ons</w>
uti li
us er</w>
ur é</w>
ur veille</w>
ur ine</w>
ur in
ur ges</w>
ur ged</w>
ur day</w>
up iter</w>
universi taire</w>
uni vers
uni tion</w>
uni forms</w>
un shot</w>
un ning</w>
un likely</w>
un ks</w>
un healthy</w>
un gar
ungar ian</w>
un g</w>
un for
un employed</w>
un easy</w>
un comfortable</w>
un ciation</w>
um p
ul ti
ulti mate</w>
u te</w>
u ine</w>
u er</w>
ty r
ty pes</w>
twel ve</w>
tw right</w>
tw are</w>
tur ns</w>
tug al</w>
tu és</w>
tu yaux</w>
tu eux</w>
tu es</w>
tu ber
tuber cu
tt oned</w>
tt el
ttel ettes</w>
tru sting</w>
tru m
trum pet</w>
tru cs</w>
trouv ée</w>
trouv âmes</w>
trouv a</w>
trou bl
tromp ette</w>
trom peur</w>
trom bone</w>
tro pical</w>
tro l
tri ché</w>
tri cher</w>
tri angle</w>
trembl er</w>
trembl ements</w>
trem ely</w>
tre ment</w>
tre ize</w>
tre ats</w>
traver sé</w>
travaill erai</w>
trav els</w>
trav el
transpor ted</w>
transl ation</w>
trans pire</w>
trans mets</w>
trans lu
trans fu
transfu sions</w>
trai tez</w>
tradi tions</w>
tradi tion</w>
tradi tion
tra hi</w>
tr ône</w>
tr ous</w>
tr ons</w>
tr ine</w>
tr as</w>
tr ape</w>
tr ap</w>
tr ait</w>
tr ag
tr ade</w>
tourn ent</w>
touri sts</w>
tour né</w>
tour ne</w>
tou ch
tor ren
torren ts</w>
tor ou
torou te</w>
tooth ache</w>
tomb ent</w>
toma c</w>
toilet tes</w>
to y</w>
to wer</w>
to wards</w>
to vers</w>
to tale</w>
to s
to ol</w>
to e</w>
to cks</w>
tis me</w>
tionn aire</w>
tim bre</w>
tig re</w>
ti ves</w>
ti ré</w>
ti ra</w>
ti r
ti ls</w>
ti li
tili z
ti ght</w>
ti est</w>
ti ers</w>
ti ennes</w>
ti ennent</w>
ti cip
ti ci
thro po
thre at</w>
thre at
threat ened</w>
thr one</w>
thir teen</w>
thermo st
thermost at</w>
thermo dynami
ther mom
the i
the at
theat re</w>
th us</w>
th ou
th es
thes da</w>
th eless</w>
text book</w>
tex ting</w>
tes ter</w>
tes t
test ament</w>
termin ée</w>
ter ro
ter res</w>
ter rain</w>
ter mes</w>
ter bro
terbro t</w>
ter ait</w>
tend in
tend ency</w>
ten ue</w>
ten t
ten sions</w>
ten ions</w>
ten ed</w>
ten ais</w>
temp ted</w>
temp tation</w>
tem por
tem per</w>
tel s</w>
teen ager</w>
techno logy</w>
te ph
teph en</w>
te book</w>
tax is</w>
tatou ages</w>
tat too</w>
tas te</w>
tar di
tardi f</w>
tal is
talis man</w>
tab le
table aux</w>
t étan
t ère</w>
t z</w>
t sun
tsun ami</w>
t s
ts ch
tsch land</w>
t ory</w>
t onne</w>
t onn
tonn erre</w>
t less</w>
t led</w>
t ings</w>
t ends</w>
t ched</w>
t aux</w>
t ations</w>
t ape</w>
t ains</w>
t aine</w>
t ai</w>
t act</w>
t ack</w>
sépar ées</w>
sépar ati
séparati stes</w>
séjour ner</w>
sé isme</w>
sé ance</w>
sympath ize</w>
sy n
sweat y</w>
swe ep</w>
sw am</w>
suy ama</w>
suspici on</w>
surviv al</w>
surveill ance</w>
surpri sing</w>
sur vie</w>
sur venir</w>
sur r
sur prendre</w>
sur plom
surplom b
sur nom</w>
sur ger
surger y</w>
suppos é</w>
suppor tive</w>
supplément aires</w>
suppli es</w>
sup érieur</w>
sup porte</w>
sun scre
sunscre en</w>
sul fu
suiv antes</w>
suit case</w>
suit able</w>
sui vit</w>
sugges tions</w>
suffer ed</w>
suff er</w>
suc cess
sub je
su ni
su me</w>
su elle</w>
su bi
subi r</w>
stupi di
stu r
stu pé
stru c
struc ture</w>
stri ct</w>
stom ach</w>
sto let</w>
sti ques</w>
sti que</w>
sti ens</w>
sti c</w>
ste ps</w>
ste ering</w>
star ing</w>
stand s</w>
stand ards</w>
st ly</w>
st er
ster fuck</w>
st ead</w>
st atu
statu t</w>
st ations</w>
st ati
st are</w>
st ances</w>
st an</w>
st an
stan bu
stanbu l</w>
st amp</w>
st all
stall ing</w>
st ain</w>
st ade</w>
st acked</w>
st able</w>
ss ez</w>
squirre l</w>
squ are</w>
spé cial</w>
sprin t</w>
spr ang</w>
spor tif</w>
spi te</w>
spi ri
spee ding</w>
spect ateurs</w>
spect at
spectat ors</w>
spea ker</w>
spe ction</w>
sp y</w>
sp in
sp here</w>
sp h
sph ère</w>
sp an</w>
sour ce</w>
sour c
soulag ement</w>
soul ev
souf fr
soud ainement</w>
sou tient</w>
sou thern</w>
sou per</w>
sou dure</w>
sou cis</w>
sor tez</w>
sor row</w>
son ges</w>
som bres</w>
solu ble</w>
soli de</w>
soldi er</w>
sold at</w>
sol ent</w>
soi rées</w>
soi rs</w>
soi ent</w>
sof tware</w>
sof tly</w>
so w</w>
so le
so cks</w>
sno b</w>
smar ter</w>
sm iled</w>
sm as
smas hed</w>
sli d</w>
sl ain</w>
ski pped</w>
ski p</w>
ski ing</w>
sk illed</w>
sk ier</w>
sk i</w>
sin k</w>
sin ge</w>
sin es</w>
sil es</w>
signifi c
sig ner</w>
si ts</w>
si onner</w>
si mul
simul ation</w>
si l</w>
si er</w>
si ans</w>
shoul der</w>
sho ws</w>
sho ot</w>
sho o
shoo ting</w>
sho e</w>
sho cked</w>
she er</w>
shar pen</w>
shar p</w>
sh u
sh mal
shmal lows</w>
sh it</w>
sh in
sh ame</w>
sh aken</w>
sexu els</w>
set tled</w>
set backs</w>
serv ant</w>
ser te</w>
ser mon</w>
ser ions</w>
ser aient</w>
separ ati
separati sts</w>
separ ate</w>
senti t</w>
sent is</w>
sen te</w>
sem i</w>
sel ler</w>
sel fie</w>
sel dom</w>
see ds</w>
secre tary</w>
secr étaire</w>
secr ète</w>
second aire</w>
secon ds</w>
secon des</w>
seas ons</w>
sear ching</w>
se yez</w>
se ize</w>
se ins</w>
se ille</w>
se igner</w>
se em
seem ed</w>
se c</w>
scul p
sculp ture</w>
scr atching</w>
scol ded</w>
scienti st</w>
scar f</w>
sc ou</w>
sauv ages</w>
sau va</w>
sau té</w>
sau ta</w>
sau ce</w>
satis faite</w>
sandwi ches</w>
sandwi ch
sandwich s</w>
sand s</w>
sam e
same di</w>
sal ted</w>
sal ons</w>
sain te</w>
sain t</w>
sai sit</w>
sai si</w>
sai gne</w>
saf ety</w>
sac s</w>
sac red</w>
sa oul</w>
sa di
s èches</w>
s winging</w>
s wal
s pic
spic y</w>
s ources</w>
s oun
soun ding</w>
s onné</w>
s onn
s n
s giving</w>
s eventy</w>
s est</w>
s ends</w>
s eau</w>
s cri
s co
sco w</w>
s car</w>
s cand
s bru
sbru ck</w>
s ation</w>
s aper</w>
s ank</w>
s ang
sang lots</w>
s an</w>
s ake</w>
s aisons</w>
rê ver</w>
révé la</w>
réussi ra</w>
réus sit</w>
résul tat</w>
résou dra</w>
résidenti elle</w>
rési dent</w>
répon ses</w>
répar é</w>
répar ez</w>
répar ation</w>
rép éter</w>
rép and
régi me</w>
rég ler</w>
réf le
réfle xion</w>
rédu ite</w>
rédu ire</w>
récon ci
réclam é</w>
réalis é</w>
ré vél
ré volution</w>
ré veiller</w>
ré v
ré sister</w>
ré side</w>
ré server</w>
ré proch
ré pan
répan dit</w>
ré ment</w>
ré fri
réfri gér
réfrigér ateur</w>
ré el</w>
ré com
ré cit</w>
ré chauff
ré able</w>
ru st
ru se</w>
ru re</w>
ru min
ru g</w>
ru b
rub b
rubb ish</w>
roy ale</w>
rou é</w>
rou p</w>
ron y
ron d</w>
rom pu</w>
rom pre</w>
ro ssée</w>
ro pl
ropl ets</w>
ro pes</w>
ro ot</w>
ro oms</w>
ro ll
ro di
rodi si
ro buste</w>
ro ast</w>
rist ina</w>
ris ks</w>
ris ked</w>
rin cess</w>
rigo ler</w>
rifi cation</w>
ridicu le</w>
ri x</w>
ri ves</w>
ri val</w>
ri ko</w>
ri fle</w>
ri ci
rici a</w>
reti ré</w>
reti rer</w>
retar dé</w>
retar ded</w>
ress enti
respect ent</w>
respec té</w>
respe cted</w>
resour ceful</w>
res terai</w>
res pl
respl en
res idential</w>
res cue</w>
requi red</w>
requ ête</w>
représent ant</w>
renom mée</w>
rend rai</w>
rend ait</w>
rencontr ées</w>
rencontr ons</w>
rencontr es</w>
rencontr a</w>
ren tres</w>
ren ted</w>
ren dit</w>
ren de</w>
ren card</w>
remar qu
rem et
rem bour
rembour ser</w>
reli eved</w>
reli ef</w>
reli able</w>
relax ed</w>
rel ations</w>
rel ation
rejo ins</w>
regrett able</w>
regard ait</w>
regard ais</w>
regar des</w>
regar ded</w>
reg istr
registr é</w>
refus er</w>
refus ait</w>
refus a</w>
refu ge</w>
ref our</w>
ref le
redu ced</w>
recomm ended</w>
recogni zed</w>
reco very</w>
reci pe</w>
recher chons</w>
recher ches</w>
recev oir</w>
re war
re volution</w>
re venus</w>
re venge</w>
re traite</w>
re tired</w>
re tenir</w>
re ques
re prise</w>
re pris</w>
re pos</w>
re pos
re porter</w>
re por
re place</w>
re plac
re n</w>
re mu
re mo
re min
re l</w>
re fres
re fl
re constru
re connais</w>
re comman
re charg
re cette</w>
re cent</w>
re ceive</w>
ray ons</w>
ras ili
rasili a</w>
rap porte</w>
rang é</w>
rand onn
ram en
rain bo
rainbo w</w>
rai ne</w>
rag ie</w>
radi um</w>
racon té</w>
racon te</w>
rac y</w>
rac ines</w>
rac es</w>
rab bits</w>
ra b</w>
r ôti</w>
r âce</w>
r tre</w>
r ors</w>
r ly</w>
r ings</w>
r ays</w>
r até</w>
r ational</w>
r ation
ration nel</w>
r assem
r appelez</w>
r al
r able</w>
quotidi enn
quotidienn ement</w>
quit ta</w>
ques tionnaire</w>
quel s</w>
quar ter</w>
quanti té</w>
qu és</w>
qu o</w>
qu illes</w>
qu illage</w>
qu ie</w>
qu ez</w>
qu ent</w>
qu e
qu aient</w>
pê ch
pyrami ds</w>
pyrami des</w>
pur pose</w>
pun is
punis h
punish ment</w>
pul sé</w>
puiss ante</w>
puis ses</w>
puis que</w>
pu té</w>
pu ts</w>
pu tain</w>
pu rification</w>
pu ll
pu its</w>
psy cho
prési denti
prépar és</w>
prépar ées</w>
préoccup ation</w>
préf érence</w>
préf èrerais</w>
précis ément</w>
précis es</w>
pré voir</w>
pré som
pré server</w>
pré sents</w>
pré cé
pré co
préco ce</w>
pruden tes</w>
prouv er</w>
prote ction</w>
propri été</w>
propos a</w>
proper ty</w>
pronon ça</w>
pronon ciation</w>
pron unciation</w>
pron ounce</w>
prom et</w>
progress er</w>
profess eurs</w>
profes sions</w>
prof ondé
profondé ment</w>
prof iter</w>
produ ira</w>
produ ctive</w>
produ cti
producti fs</w>
produ ced</w>
proch a</w>
pro ximité</w>
pro viennent</w>
pro ved</w>
pro se</w>
pro pose</w>
pro pag
pro of</w>
pro cé
priv il
prison er</w>
princip ales</w>
princip alement</w>
prin ts</w>
prin ted</w>
prin ce</w>
pri rent</w>
pri me</w>
pret tiest</w>
pret ending</w>
pret ended</w>
press ée</w>
press é</w>
preser ve</w>
pres idential</w>
pres ent
pres ence</w>
prend riez</w>
pren ant</w>
pre vious</w>
pre tend</w>
prati quer</w>
practi cing</w>
practi ce</w>
pr être</w>
pr ouvez</w>
pr ennes</w>
pr enne</w>
pr aise</w>
pous sière</w>
pous sa</w>
pour suivre</w>
pour suivi</w>
pour rions</w>
poup ées</w>
pou vions</w>
pou n
pou let</w>
pou dre</w>
poss èdes</w>
pos ées</w>
pos ture</w>
pos ted</w>
pos itive</w>
port ent</w>
por ts</w>
por tion</w>
popul ar
ponctu elle</w>
pon t</w>
pon ents</w>
politici an</w>
poli cier</w>
pol lu
pois on
poison ous</w>
poin te</w>
poi trine</w>
po é
po èmes</w>
po x</w>
po wer
po or
po ll
poll o</w>
po ker</w>
po il</w>
po cket</w>
po ches</w>
plu riel</w>
plu ies</w>
pleuv ra</w>
pleuv ait</w>
pleu ve</w>
plea sures</w>
ple ins</w>
play ground</w>
play er</w>
plan té</w>
plan ter</w>
plais an
plain te</w>
plain dre</w>
plac es</w>
pla ç
pl é</w>
pl ural</w>
pl orable</w>
pl on
pl exe</w>
pl ement</w>
pl em
pl ats</w>
pl at</w>
pl at
pl ash</w>
pl as
pl ant</w>
pl aire</w>
piè ge</w>
pizz eria</w>
pir ate</w>
pil ule</w>
pie ces</w>
pickpo cket</w>
pian iste</w>
pian ist</w>
pi ég
pi tié</w>
pi stolet</w>
pi ez</w>
pi est</w>
pi er
pier res</w>
photo syn
photo grap
photo copi
pho sp
ph on</w>
ph on
persu ad
personn ellement</w>
personn ages</w>
person ality</w>
person al</w>
perman ent</w>
per t</w>
per sion</w>
per plexe</w>
per ons</w>
per met</w>
per met
per dit</w>
per des</w>
per d
per ception</w>
per cent</w>
per ate</w>
pens ée</w>
pen cha</w>
pein tures</w>
pea ceful</w>
pea ce</w>
pe indre</w>
pay check</w>
pati o</w>
pat tes</w>
pat rio
pat ent</w>
pass és</w>
pass ing</w>
pass es</w>
pass erai</w>
pass era</w>
pass ant</w>
particip é</w>
parti cul
parti ci
parti ally</w>
part ager</w>
part agent</w>
part age</w>
paro v</w>
paro les</w>
parl ons</w>
parl erai</w>
paress eux</w>
para ît</w>
par venu</w>
par venir</w>
par v
par ten
par lais</w>
par i</w>
par fu
parfu m</w>
par faite</w>
par eille</w>
par donné</w>
par donner</w>
par cour
par as
paras ol</w>
par an
par ach
parach ute</w>
pap ill
pap i
papi ers</w>
pan ne</w>
pain tings</w>
pai x</w>
pai erai</w>
pacifi ques</w>
p étrin</w>
p és</w>
p ée</w>
p unition</w>
p ter</w>
p tem
p se</w>
p neu
p it</w>
p inte</w>
p int</w>
p ill</w>
p ful</w>
p aus
paus ed</w>
p anc
p am
p al</w>
p ages</w>
p ach
pach in
pachin ko</w>
p .
oy en</w>
ow ever</w>
over looked</w>
ouv ris</w>
outr age</w>
our ne</w>
oun t</w>
oun g</w>
oun es</w>
oun an</w>
oul ou
ou ve</w>
ou tils</w>
ou ter</w>
ou ille</w>
ou illard</w>
ou ble</w>
ou b</w>
origin aire</w>
ori ze</w>
ori g
orig ine</w>
ori entation</w>
ori al</w>
ordin ary</w>
or é</w>
or te
or o</w>
or m
orm ous</w>
or i</w>
or es
or donna</w>
or ders</w>
or dering</w>
or d
ord an</w>
or c
or bite</w>
or as</w>
opér a</w>
oppos ite</w>
oper ation</w>
oper ate</w>
oper a</w>
op érer</w>
op âtre</w>
op posé</w>
op k
opk ins</w>
op ho
op h
oph ysi
op a
opa tra</w>
onn ette</w>
onn aise</w>
onn aire</w>
ong ée</w>
ong les</w>
ong ler</w>
on éreuse</w>
on ze</w>
on to</w>
on ia</w>
on go</w>
on cer</w>
on c</w>
om ati
ologi e</w>
oli c</w>
old man</w>
old est</w>
ol é</w>
ol ym
ol low</w>
ok ay</w>
oisi rs</w>
oi ts</w>
oi te</w>
oh am
oham med</w>
offer t</w>
offen ser</w>
offen se</w>
off re</w>
off ended</w>
ocr acy</w>
occur red</w>
occup ées</w>
occu r</w>
oc ío</w>
oc re</w>
oc a</w>
oblig ed</w>
obli gé</w>
obje cts</w>
ob é
ob viously</w>
ob u</w>
ob tient</w>
ob tenir</w>
ob in
obin son</w>
o ût</w>
o y</w>
o xyg
o tion
o tic</w>
o sau
o ls</w>
o lives</w>
o le</w>
o ks</w>
o ko</w>
o ker</w>
o ins</w>
o grap
o ch
o be
obe y</w>
né go
négo ci
num éri
num bers</w>
nu age</w>
nov embre</w>
nour rir</w>
nor th</w>
nor ma
norma le</w>
nor m
norm aux</w>
nor d</w>
nom s</w>
nom bres</w>
noi rs</w>
no where</w>
no tion</w>
no ti
no ter</w>
no tebook</w>
no ire</w>
nitu de</w>
ni cot
nicot ine</w>
ni ck
nick name</w>
ni a</w>
netto y
ner veu
neigh bor
neighbor hood</w>
neigh bo
neighbo r</w>
neig er</w>
nee dn</w>
ne go
nego ti
ne g
ne es</w>
ne ck</w>
ne ces
nat ation</w>
nage ant</w>
nage a</w>
na ï
na ked</w>
n ôtres</w>
n u</w>
n ted</w>
n son</w>
n sbruck</w>
n ons</w>
n ine</w>
n esty</w>
n ent</w>
n ation</w>
n as
nas ty</w>
n ar
nar row</w>
n ais</w>
n ails</w>
n ail</w>
n ai
nai ve</w>
n agent</w>
mê ler</w>
méth ode</w>
méri tons</w>
méri que</w>
médicam ents</w>
médicam ent</w>
médec ine</w>
méd uses</w>
mé prise</w>
mé pri
mé can
myst ère</w>
myst ery</w>
murmu ra</w>
mur der</w>
mu se</w>
mu r</w>
mu m</w>
mu lé</w>
mu g</w>
mour raient</w>
moun tains</w>
mou sines</w>
mou choir</w>
mou che</w>
mor du</w>
mor ce
morce aux</w>
montr é</w>
mont ag
montag nes</w>
mon y</w>
mon té</w>
mon tra</w>
mon tez</w>
mon te</w>
mon key</w>
moder ne</w>
mo ving</w>
mo ves</w>
mo vement</w>
mo tel</w>
mo stly</w>
mo squ
mo que</w>
mo e</w>
mo del</w>
mo cr
miséri corde</w>
mis sionner</w>
mis es</w>
mis ery</w>
min y</w>
min istr
ministr ation</w>
min eur</w>
min es</w>
milli onnaire</w>
milli onaire</w>
milli ards</w>
mili a</w>
mign onnes</w>
mid night</w>
mi te</w>
mi r
mi ons</w>
mi lieu</w>
mi ens</w>
meu rtre</w>
meth od</w>
met tais</w>
mess ed</w>
mess ages</w>
mes ures</w>
merveill euse</w>
mer dé</w>
men u</w>
men tion</w>
men songes</w>
men sion</w>
men acé</w>
mel on</w>
meilleu res</w>
meill eurs</w>
mean ings</w>
mean ing</w>
me re</w>
me ets</w>
me eny</w>
may onnaise</w>
mat ern
matern elle</w>
mas tered</w>
mas och
march ant</w>
mar shmallows</w>
mar rant</w>
mar k</w>
mar ath
marath on</w>
manu elle</w>
manifes tation</w>
mang ez</w>
mand at</w>
man us
man ner</w>
man age</w>
mal sain</w>
mal ins</w>
mal igne</w>
mal heur</w>
mal gré</w>
mal entendu</w>
mal ad
malad r
magnifi que</w>
mag nitude</w>
mag ici
ma quillage</w>
ma p</w>
m ènent</w>
m pic</w>
m oul
m ons</w>
m m</w>
m ence</w>
m ec</w>
m aire</w>
m aid</w>
m ad
mad ness</w>
lé opâtre</w>
lè vres</w>
ly mpic</w>
ly fish</w>
lun dis</w>
lumi ères</w>
lu x
lu gg
lugg age</w>
lu de</w>
loy al</w>
lour ds</w>
lour de</w>
lou pé</w>
lou p</w>
lou er</w>
loo p</w>
loo dy</w>
lon ies</w>
logi cal</w>
lo ween</w>
lo ving</w>
lo gue</w>
lo cation</w>
lo cated</w>
lo cales</w>
lo c
lo an</w>
lo ad
ll y
ll et</w>
ll ard</w>
lis s</w>
lis h</w>
liqui de</w>
li és</w>
li ère</w>
li ts</w>
li p</w>
li mousines</w>
li mite</w>
li gh
li chée</w>
li b
li ar</w>
lev ée</w>
lev ez</w>
lev ant</w>
lev a</w>
lec ture</w>
lea ther</w>
lea f</w>
lea der</w>
le y</w>
le opatra</w>
le j
lej andra</w>
le i
lei sure</w>
le f
lef tovers</w>
le ased</w>
le aped</w>
lav és</w>
lav age</w>
laugh ter</w>
lau gh</w>
lar me</w>
lar gement</w>
lap in</w>
land aise</w>
lais ses</w>
lais sa</w>
laborat oire</w>
lab or</w>
la ïde</w>
la p</w>
l ton</w>
l ons</w>
l oisirs</w>
l end
lend emain</w>
l ence</w>
l en
l em
l ead</w>
l ave</w>
l as</w>
l ancé</w>
l ami
l aine</w>
l aide</w>
l ai
lai tiers</w>
knowle dge</w>
kno cked</w>
kilom ètres</w>
kil t</w>
kil ea
kilea ks</w>
ki o</w>
ki ko</w>
ker villes</w>
kee per</w>
kar a</w>
kar a
k y</w>
k ward</w>
k raine</w>
k nees</w>
k n
k id
kid ding</w>
k i</w>
k ets</w>
k awa</w>
jum ped</w>
jug ez</w>
jug ement</w>
ju in</w>
jou euses</w>
jou et</w>
jou ant</w>
jou ais</w>
jo king</w>
jo kes</w>
jo ined</w>
jo bs</w>
jet ez</w>
jel lyfish</w>
je ction</w>
je an</w>
jau ne</w>
japon aises</w>
j ong</w>
j oi
j ban</w>
j az
jaz z</w>
j ack</w>
j ac
jac ket</w>
it ate</w>
it alism</w>
it alien</w>
ist oire</w>
ist er</w>
issu es</w>
is ée</w>
is é</w>
is sons</w>
is sion</w>
is sez</w>
is sent</w>
is land</w>
is ez</w>
is es</w>
is er</w>
irre gu
irregu lar</w>
ir réproch
ir régu
ir oned</w>
ir ent</w>
ir ait</w>
ir ac
irac ul
invit ation</w>
inven ter</w>
intérê ts</w>
intéress ées</w>
intéress ée</w>
intéress ez</w>
intéress ante</w>
intéres sent</w>
intimi dée</w>
interes ts</w>
inter section</w>
inter rup
inter ro
inter cep
inter action</w>
int act</w>
insul ting</w>
instru ments</w>
institu trice</w>
inst ead</w>
inst antly</w>
infor mer</w>
infor matique</w>
influ ences</w>
influ ence</w>
infe ct
inf anti
infanti le</w>
indé pendante</w>
industri alis
indi vidu</w>
indi cation</w>
indi c
incorrigi ble</w>
incon nue</w>
inclu sion</w>
incid ent</w>
incen die</w>
in verse</w>
in utile</w>
in tu
in ter</w>
in spection</w>
in solent</w>
in se
in obu</w>
in o</w>
in ner</w>
in justice</w>
in iti
in geni
ingeni ous</w>
in g
in et</w>
in différent</w>
in d
in croy
in connu</w>
in cl
incl ina</w>
in av
impro ving</w>
impro ved</w>
impressionn ée</w>
impressi onné</w>
import ance</w>
imp sons</w>
immédi at</w>
immor tal</w>
immedi ate</w>
imagin é</w>
imagin able</w>
im primé</w>
im poli</w>
im parti
im bé
imbé cile</w>
illu sions</w>
illu sion</w>
illi r</w>
ill égal</w>
ill top</w>
ill ade</w>
il lie</w>
ignor ait</w>
ignor ais</w>
ignor a</w>
idi omati
identi fication</w>
ide as</w>
ich el
ichel t</w>
ic ass
icass o</w>
i x</w>
i tions</w>
i tif</w>
i rais</w>
i ko</w>
i ent</w>
i ckpo
ickpo ckets</w>
i ck</w>
i ans</w>
héri tage</w>
hé site</w>
hé si
hy dro
hydro g
hur ts</w>
hur le</w>
hun ch</w>
humili ée</w>
humili ated</w>
human ité</w>
hu t</w>
hu mi
hu la</w>
horri fied</w>
hor ror</w>
hor loge</w>
hor aire</w>
hoo p</w>
honn êteté</w>
hon ey
honey moon</w>
hon esty</w>
hom o
ho p</w>
ho l
ho ever</w>
ho ck
hock ey</w>
hi ér
hi re</w>
hi ma</w>
hi lip</w>
hi d</w>
her it
her be</w>
hel pful</w>
hel lo</w>
heav ens</w>
head ed</w>
he ther</w>
he els</w>
he aring</w>
he ar
hear t
hau tement</w>
harv est</w>
hari cots</w>
hard est</w>
har m</w>
har amp</w>
hap piest</w>
hap pier</w>
hand led</w>
hand ful</w>
hand ball</w>
ham bur
hambur ger</w>
hal f
half way</w>
hai r
habitu ellement</w>
habitu des</w>
hab its</w>
hab ille</w>
hab iles</w>
h stan</w>
h rodisi
h o</w>
h its</w>
h illtop</w>
h ill</w>
h ers</w>
h en</w>
h ated</w>
h a</w>
gê né</w>
géni al</w>
gé ants</w>
gâ teaux</w>
guim bar
guimbar de</w>
guim au
guimau ves</w>
guer res</w>
gu éri</w>
gu éri
gu m</w>
gu ish</w>
gu ides</w>
gu eux</w>
gu ch
guch i</w>
gro w
gro sses</w>
great ly</w>
gre es</w>
gratu late</w>
gratu it</w>
grap es</w>
grand ma</w>
gr ounds</w>
gr at
gr ass</w>
gr ais</w>
gr aines</w>
gr ade</w>
gou ttelettes</w>
gol f</w>
go ût</w>
go v</w>
go slav
go odbye</w>
go o
gni rent</w>
gn é</w>
glis sé</w>
glis sa</w>
gi ques</w>
gi en</w>
gi ants</w>
gho st</w>
gh tened</w>
ggl ed</w>
gg le</w>
gg est</w>
geni us</w>
gener ally</w>
gener al</w>
gen uine</w>
ge yser</w>
gasp iller</w>
gar é</w>
gar lic</w>
gar ettes</w>
gar er</w>
gam bling</w>
galax ie</w>
gag é</w>
g yptian</w>
g ust</w>
g unshot</w>
g rés</w>
g out
g lobal</w>
g it</w>
félic ité</w>
félic iter</w>
fus illade</w>
fun ds</w>
fu sil</w>
fu se</w>
fu mée</w>
fu cked</w>
fri tes</w>
fri r</w>
fri ghtened</w>
fri es</w>
fri ed</w>
fri dge</w>
fres h</w>
fre ak</w>
frapp ée</w>
frapp er</w>
franç aise</w>
fr ustr
fr ancs</w>
fr an
fr ame</w>
four nir</w>
four ch
fou tu</w>
fou tre</w>
fou illa</w>
formul aire</w>
form ez</w>
fore head</w>
forc ée</w>
forc ez</w>
for ty</w>
for tes</w>
for mer</w>
for given</w>
for getting</w>
for est</w>
for cé
forcé ment</w>
fond ement</w>
fon dé</w>
fon dit</w>
fon cé</w>
fon ction</w>
fol lows</w>
fo ssi
fo o</w>
fo g</w>
flu ores
flu ently</w>
flu ctu
flav or</w>
flas h
fl ying</w>
fl att
fl at
fix e</w>
finan cier</w>
finan cial</w>
fin s</w>
fin ger
fin al</w>
fi ée</w>
fi èvre</w>
fi f
fi ers</w>
fi cial</w>
fi ci
fi che</w>
fi anç
fianç ailles</w>
fer ven
fer tiliz
fer red</w>
fer ont</w>
fer més</w>
fer mée</w>
fer ait</w>
fen se</w>
fem ale</w>
fel low</w>
fav ori</w>
fav or</w>
fau ts</w>
fau dra</w>
fas siez</w>
fas hi
fas cin
far m</w>
famili er</w>
fal se</w>
fai siez</w>
fai s
fai rly</w>
fai né
fai lle</w>
fai l</w>
fai bles</w>
facil es</w>
fac tures</w>
fac tory</w>
fac er</w>
fab ri
f êtes</w>
f ts</w>
f red</w>
f r</w>
f out</w>
f out
f ounded</w>
f ound
f light</w>
f le
f is</w>
f forcez</w>
f esti
festi val</w>
f ed</w>
f ate</w>
f at
fat al</w>
f ans</w>
f ake</w>
ey mar</w>
expri mer</w>
exploi tées</w>
explo ser</w>
explo de</w>
expliqu erai</w>
expliqu a</w>
expl or
experi ences</w>
experi enced</w>
expe cting</w>
expe ct
expect ations</w>
exist er</w>
exi ge</w>
excus é</w>
excel lent</w>
excel lence</w>
exc it
exam ple</w>
exam iner</w>
exam ined</w>
exam ine</w>
exac tes</w>
exac te</w>
ex écuter</w>
ex ténu
ex tremely</w>
ex pos
ex pert</w>
ex penses</w>
ex orc
ex it</w>
ex h
ex clu
ex cl
ex ception</w>
ex cept</w>
ex ag
every day</w>
even tually</w>
ev ing</w>
ev in</w>
ev ent</w>
euro s</w>
eu tschland</w>
eu reux</w>
eu rent</w>
et anus</w>
estimat ed</w>
esti mate</w>
essenti elle</w>
essenti al</w>
essay e</w>
essai m</w>
ess ence</w>
ess ay</w>
espér ons</w>
esp ea
espea re</w>
escap ed</w>
escali er</w>
esc o</w>
es té</w>
es tors</w>
es tomac</w>
es tin
es table</w>
es sion</w>
es que</w>
es pi
es ides</w>
es cor
es ch
esch ato
ern ard</w>
er rors</w>
er rati
er lin</w>
er ies</w>
er ie</w>
er e
er born</w>
enva hi</w>
entraî ne</w>
entr ées</w>
enti èrement</w>
enti sts</w>
entend us</w>
entend ez</w>
enten dit</w>
enten ces</w>
ent ées</w>
ent our
ent aux</w>
ent a</w>
ennuy ais</w>
ennu yer</w>
enn y</w>
enn on</w>
enjo yed</w>
eng ager</w>
enfu ir</w>
endur er</w>
endr ons</w>
endr oits</w>
endor mir</w>
endor mie</w>
endommag ée</w>
end us</w>
end rix</w>
end rai</w>
end ons</w>
end ings</w>
ence inte</w>
enc re</w>
en vy</w>
en ver
en suite</w>
en sole
en registré</w>
en rag
en ormous</w>
en ons</w>
en lève</w>
en grais</w>
en ess</w>
en courage</w>
en cour
en coun
encoun ter</w>
emprun té</w>
employ és</w>
employ é</w>
empl oie</w>
emer gency</w>
embrass é</w>
embr asse</w>
embarrass ée</w>
embarrass ing</w>
em pre
em otion
em mène</w>
em mener</w>
eli eve</w>
electri city</w>
ele ph
el son</w>
el oped</w>
el ling</w>
el fast</w>
el ev
el et</w>
el a</w>
eigh ty</w>
effectu er</w>
effe cts</w>
ef force</w>
ef facer</w>
edu cated</w>
eas iest</w>
ear ed</w>
ear chers</w>
ear ch</w>
ea l</w>
e x</w>
e ing</w>
e ante</w>
e ager</w>
e B
eB ay</w>
détru ire</w>
détermin ée</w>
détermin é</w>
déte c
dét aill
dési rez</w>
dés as
désas tre</w>
dénu é</w>
démé nager</w>
déli cieusement</w>
défil é</w>
décé dée</w>
décl ina</w>
décl en
débarrass er</w>
dé çues</w>
dé veloppé</w>
dé vas
dé sir</w>
dé sin
dé sh
dé serte</w>
dé puté</w>
dé préci
dé pou
dé pit</w>
dé penser</w>
dé pense</w>
dé passé</w>
dé mocr
dé missionner</w>
dé mar
dé laïde</w>
dé gagé</w>
dé g
dé fini</w>
dé fin
dé fie</w>
dé fauts</w>
dé faite</w>
dé es</w>
dé cès</w>
dé courag
dé coll
dé chi
dé ch
dé cev
dé but
début ants</w>
dé bat</w>
dé b
dum ber</w>
dum b</w>
du res</w>
du rent</w>
du o</w>
du cted</w>
du ck</w>
dri an</w>
dres ses</w>
dream s</w>
dream ing</w>
dre w</w>
dra wings</w>
dr aw
draw ing</w>
dr ap
drap eaux</w>
dr ais</w>
dr ag
down stairs</w>
douc ement</w>
dorm ant</w>
dor mis</w>
dol ls</w>
docu ments</w>
docu ment</w>
do tée</w>
do tes</w>
do g
divor cer</w>
divor ced</w>
distribu ted</w>
distin guish</w>
distin guer</w>
dist ances</w>
dispu tent</w>
dispu te</w>
dispos ez</w>
dispos er</w>
disponi ble</w>
dispar aiss
disparaiss ent</w>
diso be
disobe yed</w>
discus s</w>
disco very</w>
disco ver</w>
dis su
dis persion</w>
dis liked</w>
dis crimin
dis courage</w>
dis charged</w>
dis as
dis appeared</w>
dis agree</w>
diri gea</w>
diri ge
dire ctement</w>
diplom ate</w>
diplom at</w>
dipl ôme</w>
din osau
din gs</w>
dig ital</w>
différen tes</w>
difficul ties</w>
differ ences</w>
diff ers</w>
diam ond</w>
diam ant</w>
diale cte</w>
diale ct</w>
di é</w>
di vers</w>
di te</w>
di stur
di riez</w>
di rais</w>
di mension</w>
di eting</w>
di et</w>
di en</w>
di ct
dict at
dictat orial</w>
di ary</w>
di agon
devin é</w>
devin rent</w>
devin ette</w>
devi ennent</w>
dev ra</w>
dev oted</w>
dev ions</w>
dev il</w>
dev eloped</w>
dev ast
devast ated</w>
det ai
detai led</w>
destin ée</w>
dess ous</w>
dess ins</w>
dess in</w>
descri ption</w>
descri be</w>
des tro
des igners</w>
des ig
derni èrement</w>
derni ers</w>
den te</w>
demand ais</w>
dem ment</w>
dem ie</w>
dem eurent</w>
del ayed</w>
defe ated</w>
defe at</w>
decid ing</w>
deb t</w>
deb ate</w>
dea f</w>
de grés</w>
de grees</w>
de ep</w>
de cep
decep tive</w>
de cent</w>
de cei
dd ly</w>
dd hist
dans é</w>
dan sa</w>
dam age</w>
d ès</w>
d war
d ust</w>
d un
d oulou
d le</w>
d ges</w>
d ette</w>
d ant</w>
d ame</w>
cô tés</w>
cy m
cy ber
custom s</w>
custom ers</w>
custom ed</w>
curio sité</w>
curi ous</w>
curi eux</w>
cur ry</w>
cul ti
cu ler</w>
cu ir</w>
cré er</w>
cré di
cru tches</w>
croy ons</w>
croy able</w>
crow ded</w>
croi rez</w>
cro yez</w>
cro ss</w>
cro che</w>
criti cal</w>
cri ed</w>
cre dit</w>
crai gnez</w>
cr ée</w>
cr ap</w>
cr ains</w>
coû tera</w>
couver tures</w>
cous ins</w>
cous ine</w>
cour ses</w>
coup ent</w>
coun tless</w>
cou ples</w>
corri gé</w>
correspond ant</w>
correspond ait</w>
correspon d</w>
corre cted</w>
cor ner</w>
cop y
convainc us</w>
convainc re</w>
contribu te</w>
contribu er</w>
contrari é</w>
contr ain
contr adi
contradi ction</w>
conten u</w>
conten ts</w>
conten ted</w>
contac ter</w>
constru ite</w>
const antly</w>
conspi racy</w>
consom mation</w>
considér ée</w>
considér ablement</w>
considé ré</w>
considé rer</w>
conse quences</w>
connaiss ons</w>
connaiss ez</w>
conn us</w>
conn ait</w>
confis qué</w>
confis cated</w>
confir mé</w>
confi dence</w>
confi ant</w>
confectionn é</w>
condu ite</w>
condu cteur</w>
condi tions</w>
condi tionné</w>
condi tion
conclu sion</w>
concer nant</w>
con ver
con ven
con tain</w>
con sum
con nue</w>
con ne
con jug
con gratulate</w>
con fusion</w>
con fron
con ference</w>
compos ée</w>
compos ed</w>
compos ants</w>
comport ent</w>
compli quée</w>
complain t</w>
compl éter</w>
compl ex
compl ain</w>
compag nons</w>
comp elled</w>
comp an
compan ions</w>
commun ity</w>
commun isme</w>
commun auté</w>
commer ci
command é</w>
comm ission</w>
comm ettre</w>
comm ents</w>
combus tion</w>
com pu
com préhen
com promise</w>
com prendrais</w>
com prendrai</w>
com prend</w>
com ponents</w>
colli sions</w>
colle ge</w>
colle ction</w>
colle cted</w>
collabor ative</w>
coll è
col ours</w>
col or
col n</w>
co ws</w>
co lonies</w>
co lo
co ins</w>
co de</w>
co ck
cock tail</w>
clu sterfuck</w>
clou dy</w>
clou ds</w>
clou d</w>
clo set</w>
clo sest</w>
clo ch
clim b</w>
clim at</w>
cli pse</w>
cli ents</w>
class room</w>
clari fication</w>
cl é
cl austr
claustr opho
cl ap</w>
cl aire</w>
cl aim
claim s</w>
ck er</w>
ck Dis
ckDis play</w>
civ il</w>
cis m</w>
circum stances</w>
cir r
ci ties</w>
ci garettes</w>
châ teau</w>
chu tes</w>
chu te</w>
cho o
chirur gie</w>
chi eving</w>
chi enne</w>
cherch eurs</w>
cherch ais</w>
cher a</w>
che wing</w>
che ated</w>
charac ters</w>
charac ter</w>
char me</w>
char gé</w>
char ges</w>
char ger</w>
chap ter</w>
chang era</w>
challen ger</w>
ch œur</w>
ch ère</w>
ch èque</w>
ch unks</w>
ch ré
ch oux</w>
ch and
ch aises</w>
ch airs</w>
ch air
chair person</w>
ch ain</w>
ch a
cha el</w>
cert ainly</w>
cer cle</w>
cen tes</w>
cen ter</w>
cen s
cath oli
cat alo
cass ero
cas tle</w>
cas ino</w>
care er</w>
car rying</w>
car refour</w>
car es</w>
car di
capit alisme</w>
capit ale</w>
capac ité</w>
cap ture</w>
cap ital</w>
cand inav
can cel
can ard</w>
cam pus</w>
cam p</w>
cam ar
camar ades</w>
cal ories</w>
caf étéria</w>
cach é</w>
c â
c us</w>
c tori
c our</w>
c enti
c el</w>
c arried</w>
c arri
c aill
caill ou</w>
c ab
cab b
bê ti
bé rez</w>
bé quilles</w>
but tocks</w>
but ter
bus sy</w>
bus h</w>
bur n</w>
bun tu</w>
bun ch</w>
bu ying</w>
bu llet</w>
bronz age</w>
britanni que</w>
brio che</w>
bri sé</w>
bri ller</w>
bri lle</w>
bri dge</w>
brea ks</w>
brea king</w>
bre v
bre ment</w>
bre as
breas ts</w>
brac elet</w>
br ush</w>
br uns</w>
br un</w>
br ouillard</w>
br ings</w>
br ave</w>
br ain
br a</w>
boy cot
bou illie</w>
bou cle</w>
bor ac
borac as
boracas li</w>
bon jour</w>
bon bons</w>
boi te</w>
bo wed</w>
bo w
bo l</w>
blu ff
blon des</w>
blo quée</w>
blo cked</w>
bli n</w>
bli ez</w>
bles sures</w>
bles sure</w>
ble eding</w>
blan kets</w>
bl é</w>
bl ings</w>
bl eue</w>
bl ancs</w>
bl ague</w>
bl ag
bl ack
black board</w>
bit ter</w>
bit ing</w>
bir th</w>
bien venue</w>
bicy cles</w>
bi got</w>
bi ggest</w>
bi ens</w>
betr ayed</w>
betr ay</w>
bes oins</w>
bes ide</w>
ber t</w>
ber ceau</w>
benef it</w>
ben e
believ able</w>
behav ior</w>
be ings</w>
be having</w>
be c</w>
be aring</w>
be ard</w>
bat h</w>
bat aille</w>
bas ket</w>
bas ed</w>
bar re</w>
bar ks</w>
bar king</w>
bar be</w>
bar a</w>
banan es</w>
banan as</w>
banan a</w>
ban c</w>
ban ane</w>
ball s</w>
ball on</w>
bal ay
balay er</w>
bag ue</w>
bag ar
ba ked</w>
b ygones</w>
b ounce</w>
b lowing</w>
b low</w>
b loody</w>
b liss</w>
b ing</w>
b in</w>
b ead</w>
b ath
b asse</w>
b arri
b are</w>
b ande</w>
b ain</w>
b agno
bagno le</w>
b a</w>
aî née</w>
azak hstan</w>
az a</w>
ay oko</w>
ay ne</w>
aw oke</w>
aw kward</w>
aw are</w>
aw ai
avou er</w>
avi guer</w>
avi d</w>
aveu gle</w>
av oi
av en</w>
autoris ée</w>
autori sa</w>
autom obiles</w>
auth or</w>
augment ent</w>
audi ence</w>
au toroute</w>
au to</w>
au ront</w>
au quel</w>
au l
attr acted</w>
atti ré</w>
attend rai</w>
attend ons</w>
attend ant</w>
atten tif</w>
atten te</w>
att ement</w>
att ar
att aque</w>
ati e</w>
athle tic</w>
athle te</w>
ath lé
ath ed</w>
at urday</w>
at mo
at ar</w>
at a.
ata. gov</w>
assum ptions</w>
assist ance</w>
ass aul
ass ass
aspe ct</w>
as tro
as te</w>
as sit</w>
as sister</w>
as parov</w>
as p</w>
as ks</w>
as king</w>
as ka</w>
as ide</w>
as ak
asak i</w>
artifi cial</w>
arti ste</w>
arti st</w>
arriver as</w>
arriver a</w>
arriv ées</w>
arriv ons</w>
arriv ing</w>
arriv al</w>
arri va</w>
ari th
ari es</w>
argu ing</w>
are as</w>
ard anus</w>
arch éty
arab e</w>
ar se</w>
ar rest</w>
ar o</w>
ar mée</w>
ar mes</w>
ar gue</w>
ar es</w>
ar ed</w>
ar c</w>
ar ah</w>
ar a</w>
appréci é</w>
appréci erais</w>
appréci era</w>
appréci er</w>
appro xim
appro pri
appro che</w>
appr ouve</w>
appr ouv
appl ying</w>
appl au
appell erai</w>
appell era</w>
appel lent</w>
appe ars</w>
appe aled</w>
appar entées</w>
app lications</w>
app lication</w>
app ing</w>
aper çu</w>
aper ç
ap te</w>
ap pu
ap porterai</w>
ap porte</w>
ap hrodisi
ap eu
anti cip
ant ages</w>
ans wers</w>
ann oun
ann once</w>
ank sgiving</w>
anim ation</w>
ani guchi</w>
ang ed</w>
and range</w>
and ouille</w>
and ela</w>
anci en</w>
anc êtres</w>
anc estors</w>
anc esco</w>
anak o</w>
an z</w>
an thropo
an que</w>
an no
an mar</w>
an ette</w>
an alo
améric ain</w>
amélior ée</w>
amus é</w>
ambi tious</w>
amb ass
am used</w>
am pa</w>
am ount</w>
am er</w>
am ateurs</w>
am ant</w>
am ak
amak o</w>
alph anu
allergi es</w>
all as</w>
all ant</w>
alis tic</w>
alis te</w>
alis t</w>
ali stes</w>
ali for
al é</w>
al tru
al m</w>
al lows</w>
al li
al king</w>
al géri
al ert</w>
al as</w>
ak ongo</w>
ak espeare</w>
ak ag
akag awa</w>
ajou tées</w>
ajou ter</w>
ais ée</w>
ais ance</w>
air o</w>
ain ting</w>
aim able</w>
aill eurs</w>
aider ai</w>
ai son</w>
ai gu
ai dés</w>
ai dée</w>
ai dé</w>
agressi vité</w>
aggres sion</w>
ag réable</w>
ag issait</w>
ag i
ag ers</w>
ag ement</w>
ag asaki</w>
ag an</w>
affir mer</w>
affi cher</w>
affai rs</w>
af fe
advi ser</w>
advi se</w>
adverti sing</w>
adverti sements</w>
adv ance</w>
adu l
adoles cents</w>
adoles cent</w>
admi ré</w>
admi red</w>
admi rab
adi l</w>
addi tionn
adap ter</w>
adap t</w>
ad vers
ad ress
ad ministration</w>
ad mets</w>
ad erborn</w>
actu ari
acti f</w>
acqu érir</w>
ack ers</w>
aci d</w>
achè terais</w>
achet a</w>
ach ing</w>
ace book</w>
accus ée</w>
accus er</w>
accid ents</w>
accid ent
ac tions</w>
ac rony
ac qui
ac customed</w>
ac cue
ac cro</w>
ac cro
ac cess</w>
aby le</w>
aby l
absur di
absur d</w>
abstr act</w>
absor be</w>
absolu te</w>
abo ard</w>
aband onne</w>
aband oned</w>
ab use</w>
ab stiens</w>
ab sente</w>
ab sence</w>
ab ri</w>
ab ic</w>
ab ducted</w>
ab attement</w>
ab ah</w>
a the
a se</w>
a qué</w>
a part</w>
a ked</w>
a S
aS C
aSC RI
aSCRI P
aSCRIP T</w>
Yu kio</w>
Yu kawa</w>
Y oung</w>
Y ear</w>
Y 2
Y2 K</w>
Wi kileaks</w>
Wh erever</w>
War craft</w>
W inter</w>
W hoever</w>
W hether</w>
W ell</w>
W ayne</w>
W ater</w>
W asn</w>
W ash</w>
Voy ons</w>
Vou drais</w>
V is</w>
V ince</w>
V ide</w>
V as</w>
Ur anus</w>
Uni versity</w>
Un believable</w>
U ti
U se</w>
U kraine</w>
U buntu</w>
U S</w>
Tur quie</w>
Tur key</w>
Tu fts</w>
Tro is</w>
Trav eling</w>
Tradu isez</w>
Tr ouvez</w>
Tr ang</w>
Ti m</w>
Ti ens</w>
Ti ckDisplay</w>
Ti bet</w>
Thou sands</w>
Thou gh</w>
The ir</w>
Th ree</w>
Th ings</w>
Th en</w>
Th anksgiving</w>
T rouve</w>
T ed</w>
T aro</w>
T aniguchi</w>
T alking</w>
Su r</w>
Su gar</w>
St eve</w>
St ampa</w>
Sou viens</w>
Sor tez</w>
Sor ry</w>
Some body</w>
So oner</w>
Sh ounan</w>
Sh ould</w>
Sh inobu</w>
Sh ame</w>
Sh akespeare</w>
Se en</w>
Se con
Sal z
Sach s</w>
Sach iko</w>
Sa to</w>
S é
S ydney</w>
S wimming</w>
S urveille</w>
S tephen</w>
S qu
S pot</w>
S ors</w>
S ont</w>
S onia</w>
S ix</w>
S impsons</w>
S hut</w>
S erais</w>
S entez</w>
S entences</w>
S end</w>
S ci
S candinav
S ayoko</w>
S aturday</w>
S arah</w>
S andra</w>
S am</w>
S ally</w>
S acré</w>
S abah</w>
S D</w>
Ré cemment</w>
Res nais</w>
Res earchers</w>
Re ichelt</w>
Re cently</w>
Re agan</w>
RI C</w>
R unning</w>
R un</w>
R ome</w>
R ocío</w>
R obinson</w>
R ick</w>
R h
R ev
R ea
R appelez</w>
R A
RA M</w>
Qu it
Qu e
Pythag ore</w>
Pythag oras</w>
Pres que</w>
Por tugal</w>
Pl ay</w>
Pat ricia</w>
Par lons</w>
Par k</w>
Par fois</w>
Par ents</w>
Par don</w>
Pal ais</w>
P ush</w>
P résident</w>
P réparez</w>
P ré
P rincess</w>
P ol
P lu
P is
P ickpockets</w>
P icasso</w>
P hilip</w>
P haramp</w>
P assez</w>
P ainting</w>
P aderborn</w>
P acifi
Ou vrez</w>
Ou bliez</w>
Ob ama</w>
O xford</w>
O ver</w>
O scar</w>
O ri
O pen</w>
O lympic</w>
O liver</w>
O kin
O c
No vember</w>
No riko</w>
No bel</w>
Ne wton</w>
Na ples</w>
Na omi</w>
N eymar</w>
N er
N elson</w>
N ash</w>
N ara</w>
N akagawa</w>
N agasaki</w>
My anmar</w>
Mon tre</w>
Mon te</w>
Mon go
Mon drian</w>
Mon days</w>
Mo zart</w>
Mo scow</w>
Mo scou</w>
Mo re</w>
Mis hima</w>
Mil an</w>
Mi yazaki</w>
Mi ho</w>
Mi chael</w>
Mat t</w>
Mat suyama</w>
Mat oub</w>
Mar ty</w>
Mar tin</w>
Mar seille</w>
Mal i</w>
Mal gré</w>
Mag ic</w>
M ust</w>
M u
M oyen</w>
M other</w>
M ohammed</w>
M me</w>
M iracul
M edi
M ax</w>
M ang
M andela</w>
M an
M age</w>
M &apos;</w>
Lu xembourg</w>
Lu ther</w>
Lors qu&apos;</w>
Lin coln</w>
Li ke</w>
Li bérez</w>
L éa</w>
L ève</w>
L une</w>
L ui</w>
L ounes</w>
L eur</w>
L ennon</w>
L SD</w>
L O
K evin</w>
K eller</w>
K azakhstan</w>
K athy</w>
K asparov</w>
K akongo</w>
Ju lie</w>
Ju ba</w>
Jou e</w>
Joh nson</w>
Jo e</w>
Jim my</w>
Jim i</w>
Je anette</w>
Jav aSCRIPT</w>
Jav a</w>
J upiter</w>
J une</w>
J ordan</w>
J enny</w>
J ack</w>
Isra ël</w>
Isra el</w>
Is n</w>
In stead</w>
In spi
In nsbruck</w>
In formez</w>
In deed</w>
In croyable</w>
Igno re</w>
I stanbul</w>
Hum mer</w>
Honn i</w>
Ho oker</w>
Hit omi</w>
Hit ler</w>
Hen ry</w>
Hen an</w>
Hel lo</w>
Har ry</w>
Har bin</w>
Hal loween</w>
H ungarian</w>
H owever</w>
H ot</w>
H opkins</w>
H istoire</w>
H i
H ey</w>
H eureux</w>
H endrix</w>
H aving</w>
H as</w>
H and</w>
H anako</w>
H ab
Gu erre</w>
Grand ma</w>
Gir ls</w>
Gi ven</w>
Ger mans</w>
Gar dez</w>
G râce</w>
G roup</w>
G ot</w>
G oro</w>
G oldman</w>
G l
G en
G aza</w>
G andrange</w>
G ables</w>
Fri tz</w>
Franç ois</w>
Fr anz</w>
Fr ancesco</w>
For give</w>
Fin alement</w>
Fe el</w>
F élicitations</w>
F red</w>
F ollow</w>
F l
F ind</w>
F ill</w>
F anta</w>
F adil</w>
F acebook</w>
Ex iste</w>
Eu ler</w>
Ess ayez</w>
Ess aie</w>
En vir
En semble</w>
En joy</w>
En core</w>
Em br
E ric</w>
E milia</w>
E gyptian</w>
E fforcez</w>
E ach</w>
Désol é</w>
Débarr asse</w>
Dé pê
Dur ant</w>
Du blin</w>
Do wn</w>
Do esn</w>
De bussy</w>
D ét
D u</w>
D roplets</w>
D ouble</w>
D eutschland</w>
D em
D avid</w>
D ardanus</w>
D ame</w>
D allas</w>
D ad</w>
Cre ative</w>
Corri gez</w>
Contin ue</w>
Contin u
Con gratulations</w>
Comm ons</w>
Col bert</w>
Co la</w>
Christop her</w>
Christop he</w>
Chil i</w>
Chi le</w>
Cher chez</w>
Che ck</w>
Char tres</w>
Ch ange</w>
Ch acun</w>
Ce pendant</w>
Cath olic</w>
Car twright</w>
Car lton</w>
Cap itu
Cap italism</w>
C ut</w>
C u
C ré
C ristina</w>
C oun
C oca</w>
C léopâtre</w>
C leopatra</w>
C l
C athy</w>
C ambo
C alifor
C airo</w>
C aire</w>
C .</w>
But terbrot</w>
Bre and
Bre akfast</w>
Bre ak</w>
Bi zarrement</w>
Be thesda</w>
Be ing</w>
Be fore</w>
Bas kervilles</w>
Bar bara</w>
Bar ack</w>
B ye</w>
B ur
B rush</w>
B ride</w>
B read</w>
B rasilia</w>
B onne</w>
B ite</w>
B esides</w>
B ernard</w>
B erlin</w>
B elieve</w>
B elfast</w>
B anque</w>
B amako</w>
B abyl
B RIC</w>
B BC</w>
Av ons</w>
Av atar</w>
Au trefois</w>
Att endons</w>
At trape</w>
At lan
As seyez</w>
Ar gent
Ar abic</w>
Appar ently</w>
Appar emment</w>
Ap prends</w>
Any body</w>
An ticip
An tar
An na</w>
An ki</w>
An kara</w>
An drew</w>
Am nesty</w>
Allem ands</w>
All ah</w>
Al most</w>
Al fred</w>
Al bi
Al aska</w>
Al ain</w>
Akag i</w>
Akag awa</w>
Aim erais</w>
Afri que</w>
Afri ca</w>
A ïe</w>
A ren</w>
A pollo</w>
A part</w>
A muse</w>
A lejandra</w>
A kiko</w>
A jou
A délaïde</w>
A d
A chieving</w>
8 9</w>
8 8</w>
8 3</w>
7 89</w>
6 0
60 4</w>
4 2</w>
3 2</w>
201 6</w>
200 3</w>
200 1</w>
20 30</w>
20 00</w>
2. 0</w>
2 7</w>
2 5</w>
2 0</w>
2 00</w>
198 5</w>
198 1</w>
198 0</w>
197 4</w>
197 2</w>
197 0</w>
191 4</w>
191 2</w>
19 20</w>
18 88</w>
18 60</w>
1 789</w>
1 4</w>
1 2</w>
